s e 14493919
se p 13367806
[ sep 13360175
[sep ]</w> 13360175
t h 7210811
y o 4071505
i n 3975959
a n 3690211
th e</w> 3286766
yo u</w> 3124428
a l 2598377
m e</w> 2407968
i n</w> 2279573
o u 2213648
e a 2174740
in g</w> 2132825
an d</w> 2075937
t o</w> 2047131
e r 2013738
e r</w> 1967896
i g 1863870
i t</w> 1818819
o n 1805307
a t</w> 1626442
v e</w> 1557046
s t 1555839
w h 1520563
o n</w> 1477400
a r 1460248
l o 1446341
l i 1438355
n o 1418133
e n</w> 1333457
o r 1272819
w a 1255296
e s</w> 1242173
i s</w> 1240063
l l</w> 1229068
e d</w> 1206149
m y</w> 1173760
' s</w> 1142453
n ' 1114512
n' t</w> 1108313
i t 1091656
e n 1067823
s t</w> 1049613
k e</w> 1045454
r o 1022712
s h 1010141
m a 970917
c a 943334
d o</w> 942423
r e 932060
th at</w> 913833
s e</w> 899531
o r</w> 889209
o f</w> 883514
yo u 882987
e t</w> 878841
t i 876668
e v 864502
al l</w> 826223
g o 822588
c h 821445
no w</w> 814711
l a 791863
you r</w> 782892
l d</w> 772529
ig h 763588
ig n 748231
b u 739081
b e 738639
r a 735779
er e</w> 732052
w e</w> 731481
al ign 730737
[ align 730050
[align ]</w> 730050
' m</w> 712492
c o 690248
s a 673279
h a 662610
b a 657057
c k</w> 653094
h o 651043
b e</w> 650287
r i 635657
igh t</w> 633910
e e 631372
r e</w> 629621
l e</w> 626065
d o 601637
th e 596948
f or</w> 583573
on e</w> 576088
d i 563893
u n 562479
c e</w> 543933
s o</w> 542809
ou t</w> 541013
r ea 528140
d e</w> 520493
s o 506542
w i 504244
w it 503477
u st</w> 497051
t t 494368
n o</w> 492604
l y</w> 491938
li ke</w> 490115
wit h</w> 486927
c h</w> 484140
bu t</w> 482442
d a 478865
s i 474214
m e 470587
k now</w> 463907
t o 463669
lo ve</w> 462497
t a 458866
b o 444722
u p</w> 443400
th is</w> 438964
h ea 437888
w n</w> 437311
go t</w> 437029
n e 436612
ev er</w> 423481
j ust</w> 423470
wh at</w> 422458
g i 416486
l e 395173
wh en</w> 392918
s s</w> 390110
wa y</w> 386863
g et</w> 379601
m i 377794
' re</w> 376509
g a 374605
q u 372898
b y</w> 370342
n a</w> 369698
o h</w> 367578
s u 367359
ca n</w> 364052
ar e</w> 356737
m o 353284
ou ld</w> 347813
f a 342263
' ll</w> 341875
ou n 338458
c k 334197
t r 331742
p a 331586
t s</w> 328772
the y</w> 328412
d e 324389
th ing</w> 323774
t e</w> 316995
f u 315455
i f</w> 313888
g o</w> 313387
w or 309573
ou g 309145
d s</w> 307531
e ll</w> 303969
sh e</w> 303108
in d</w> 299524
an t</w> 293646
wa s</w> 290853
u se</w> 289375
u r 288184
ti me</w> 284956
do wn</w> 282596
e l 282318
th ere</w> 276464
ev er 276012
s p 274804
d y</w> 273191
or e</w> 273013
se e</w> 271581
l et</w> 263399
ca use</w> 263393
l ea 260773
n ever</w> 257078
f ee 254540
h e</w> 253424
oun d</w> 251064
c a</w> 251023
f ro 250164
no t</w> 249885
on g</w> 247832
a s</w> 246434
wi ll</w> 239217
fro m</w> 239143
' ve</w> 239134
th in 238856
y ea 238523
lo o 237078
co me</w> 236457
th er</w> 234753
p p 234356
w ant</w> 234163
f i 232562
ha ve</w> 232419
a n</w> 226812
y s</w> 221455
oug h</w> 221224
da y</w> 220819
ba by</w> 219587
t h</w> 219098
in e</w> 218208
k ing</w> 212734
p u 210457
so me 209639
r u 209127
hea r 207195
ba ck</w> 207177
g e 206730
sa y</w> 205278
ma ke</w> 205217
f e</w> 204585
ma n</w> 204051
l a</w> 203329
p la 203114
r ight</w> 199522
co m 196818
n a 195416
k i 194307
ee p</w> 193037
ta ke</w> 192558
h er</w> 192243
u s</w> 191583
yea h</w> 191290
ho w</w> 190929
st a 189169
p o 188502
wh ere</w> 185660
v i 185597
g s</w> 182206
o o 181867
g on</w> 180578
l ing</w> 180513
. . 178965
a i</w> 178796
st i 177708
h i 176409
e y</w> 176369
li fe</w> 175781
ou r</w> 174947
g e</w> 174650
er s</w> 174516
f or 173656
gi r 168675
l u 168288
a b 168222
c ould</w> 167632
h ere</w> 167602
v er</w> 167005
i d</w> 166883
g u 166670
m ore</w> 165826
l s</w> 163894
n ig 163358
m u 161681
w o</w> 161029
c on 160022
fee l</w> 159843
qu e</w> 156274
a way</w> 154958
d er</w> 154376
en t</w> 153236
b i 151996
r y</w> 151595
s h</w> 150358
ne ed</w> 149291
c i 147500
p ar 146551
bo dy</w> 146221
ti on</w> 145569
be en</w> 145340
n ight</w> 145163
go o 145034
p i 144403
ever y 143648
y es</w> 143215
wh o</w> 142925
t ell</w> 142135
hear t</w> 140864
t ur 139694
t a</w> 138731
en d</w> 138273
wa n</w> 136629
th r 135284
sh o 134450
si de</w> 134101
gi ve</w> 133134
s c 132711
t er</w> 132039
so me</w> 131400
i r</w> 131061
.. .</w> 130875
gir l</w> 130860
m b 130464
t y</w> 129829
t e 129098
w e 128017
d a</w> 127683
lo w</w> 127553
thr ough</w> 126764
m s</w> 126462
th en</w> 126362
tt er</w> 125933
ab out</w> 125479
tt le</w> 125398
se d</w> 125335
wh y</w> 125320
wor ld</w> 125222
m p 125212
' cause</w> 123923
a ga 122808
y a</w> 122247
to o</w> 121513
thin k</w> 120065
o p 119617
b rea 119022
v er 118938
t ed</w> 118859
on ly</w> 118173
r s</w> 117819
k eep</w> 117555
m on 117500
y ing</w> 117389
c u 116841
w ould</w> 116457
v ing</w> 115630
m a</w> 115176
st ar 114536
p e 114265
f f</w> 113832
sti ll</w> 113537
k in</w> 113031
d ing</w> 112997
h is</w> 112403
n ing</w> 112068
the m</w> 111550
w al 111265
goo d</w> 111033
f e 109989
g a</w> 109052
se l 108903
p ro 108219
wa ys</w> 108111
aga in</w> 107513
sa id</w> 107312
o ther</w> 107198
a m</w> 107115
al ly</w> 106528
st o 105801
ch an 105795
l l 105607
b ea 105548
li ttle</w> 105249
d rea 104971
w ell</w> 104406
ha d</w> 104359
ar ound</w> 103969
di d</w> 103831
ne w</w> 103798
ever y</w> 103699
' d</w> 102908
o ver</w> 102423
m es</w> 102384
t ra 102184
e m</w> 101285
e yes</w> 101245
l ong</w> 100266
d an 99676
ea r</w> 99224
p re 99160
m ind</w> 98886
b r 98371
loo k</w> 98218
d er 98113
h t</w> 98022
m or 97921
a l</w> 97471
h ar 97242
s ing</w> 97148
` `</w> 96510
t ing</w> 95655
n i 95252
m an 95224
p e</w> 94765
' '</w> 94490
t u 93963
wh i 93555
t al 92964
h an 92463
tr u 92398
sh a 92334
e l</w> 92126
o ff</w> 92044
al ways</w> 92023
f t</w> 91466
s in 90947
y o</w> 90529
w ere</w> 90095
b it 89787
l es</w> 89413
f ind</w> 89185
ch i 87838
v o 87532
f ri 86553
sh it</w> 86167
l ight</w> 86159
sel f</w> 86008
p er 85665
di e</w> 85569
no thing</w> 84635
c lo 84595
b la 84586
nig ga</w> 83919
p s</w> 83827
t on 83688
w s</w> 83440
re e</w> 83047
e x 82525
ho me</w> 82180
d ea 81784
the se</w> 81557
tr y</w> 81428
w o 81228
li e 80900
b ro 80841
c ra 80214
thin gs</w> 79968
i l</w> 79826
v es</w> 79723
s k 79310
hea d</w> 79180
be tter</w> 78999
d ar 78817
it s</w> 78705
d r 78284
in to</w> 77867
a c 77588
fu ck 77581
ho ld</w> 77170
c ar 76665
pu t</w> 76114
hi m</w> 75852
d u 75833
k no 75814
nig ga 75530
g one</w> 75341
st r 75032
t ch</w> 75029
s ou 75028
j o 74931
w r 74838
a m 74357
se n 74260
it e</w> 74174
f ore</w> 73851
th an</w> 73665
g r 73477
s on</w> 72852
u g 72804
hea r</w> 72708
re ally</w> 72374
st and</w> 72057
an y 71941
every thing</w> 71720
it y</w> 71648
l o</w> 71434
tur n</w> 71426
li ve</w> 71181
be fore</w> 71180
h ey</w> 71134
c all</w> 70920
ev en</w> 70708
on s</w> 70470
g ra 70423
fu ck</w> 70155
t ri 69891
ro w</w> 69837
k es</w> 69829
mu ch</w> 69712
c e 69264
oug ht</w> 68878
sto p</w> 68360
m i</w> 67855
some thing</w> 67581
bu r 67278
fa ce</w> 67221
t er 66973
be lie 66949
lea ve</w> 66691
a f 66664
g er</w> 66417
a s 65829
v e 65760
wi th 65706
k s</w> 65655
c al 65542
j a 65042
s w 64996
m in 64719
ton ight</w> 64708
ma de</w> 64653
belie ve</w> 64421
h u 64192
y e</w> 64106
sta y</w> 64088
ru n</w> 63937
ti mes</w> 63804
o l 63709
f in 63439
sh ould</w> 63353
bo y</w> 63348
al one</w> 62809
u n</w> 62714
c t</w> 62635
j e 62342
an other</w> 62312
har d</w> 62151
n e</w> 62105
m m 61719
sho w</w> 61538
mon ey</w> 61418
l an 61299
ou s</w> 61291
le ft</w> 61273
h e 61053
wh o 61041
qu i 60692
rea l</w> 60503
in side</w> 60470
m ar 60364
r ed</w> 59876
pe op 59768
ti l</w> 59690
o ld</w> 59524
la st</w> 59103
l on 59014
nigga s</w> 58777
peop le</w> 58699
s y</w> 58666
b le</w> 58565
the ir</w> 58404
mb er</w> 58090
le ss</w> 57891
go ing</w> 57826
ha s</w> 57609
f all</w> 57558
n u 57490
j u 57393
ha pp 57352
p lea 57336
f f 57333
re e 57113
go d</w> 56913
al i 56893
pla ce</w> 56643
s ch 56293
sa me</w> 56202
i m</w> 56076
o k</w> 55868
m y 55337
ge tt 55330
h el 55326
z e</w> 55084
c or 55079
f lo 54985
l in</w> 54839
i r 54780
w an 54580
w in 53912
t u</w> 53869
o m</w> 53777
s l 53764
ig h</w> 53634
w ar 53530
un der 53341
y in</w> 53029
d ed</w> 52553
v in</w> 52543
with out</w> 52411
d ro 52396
g ing</w> 52274
ch a 52162
t ea 51823
whi le</w> 51595
fu l</w> 51580
v en</w> 51531
st e 51523
p ri 51369
lo st</w> 51298
a h</w> 51292
na me</w> 51240
f al 51178
t en 51172
c es</w> 51134
on t</w> 51122
pla y</w> 51014
e ss</w> 50688
h and</w> 50484
t wo</w> 50381
d one</w> 50378
ck s</w> 50130
r un 50089
m ine</w> 49981
wr ong</w> 49970
bi g</w> 49882
se s</w> 49837
ra in</w> 49710
o se</w> 49695
wa it 49579
m en 49486
l ed</w> 49309
b lu 49089
wal k</w> 48992
f oo 48914
ba d</w> 48852
ch e 48741
bit ch</w> 48394
sou l</w> 48310
l in 48180
h igh</w> 47915
brea k</w> 47870
se e 47634
c ro 47628
n ed</w> 47567
o wn</w> 47437
tru e</w> 47374
su n</w> 47284
z y</w> 47167
r d</w> 47153
plea se</w> 47084
rea dy</w> 47021
k ed</w> 47019
en ds</w> 46966
k en</w> 46946
d ri 46905
f ree</w> 46808
chan ge</w> 46791
k e 46754
m ent</w> 46742
th ought</w> 46724
v ed</w> 46508
t ou 46369
t in</w> 46245
h ur 45890
su re</w> 45805
s si 45599
e st 45531
drea m</w> 45453
ea r 45331
v a 45269
fee ling</w> 44792
' em</w> 44496
t ch 44465
ea n</w> 44465
an g 44388
g re 44220
igh ts</w> 44180
ca me</w> 44031
d en</w> 44025
fi r 43876
st an 43840
s in</w> 43766
d en 43581
han ds</w> 43483
fi re</w> 43468
in s</w> 43439
ma y 43433
o oh</w> 43328
da ys</w> 43157
re me 42995
i l 42918
my self</w> 42816
fa r</w> 42788
pa in</w> 42505
ne ss</w> 42443
t ro 42423
h it</w> 42413
en ough</w> 42387
th ose</w> 42366
p ra 42329
su r 42275
i ch</w> 42110
f r 42078
s an 42073
com ing</w> 42044
c are</w> 42014
st or 42002
s mi 41733
k a 41660
b or 41622
dan ce</w> 41555
be st</w> 41243
every body</w> 41150
s ong</w> 41063
st ra 40891
bla ck</w> 40890
s sed</w> 40809
u p 40784
to ld</w> 40782
m ight</w> 40702
some one</w> 40640
b loo 40598
for ever</w> 40586
h ou 40472
br ing</w> 40399
tu re</w> 40379
tal k</w> 40353
wa tch</w> 40345
c ry</w> 40267
d es</w> 40201
star t</w> 40179
a d</w> 40167
m ust</w> 40018
wor ds</w> 39992
mo ve</w> 39899
com es</w> 39801
may be</w> 39768
ri de</w> 39720
c ri 39684
w on 39664
sk y</w> 39602
be cause</w> 39495
do es</w> 39446
par t</w> 39355
ho pe</w> 39185
en ce</w> 39114
in t</w> 39108
p h 39003
to wn</w> 38799
c an 38715
loo king</w> 38685
ro ck</w> 38640
ge ther</w> 38600
wa it</w> 38545
s i</w> 38515
s we 38485
i ce</w> 38406
th er 38341
to gether</w> 38328
fir st</w> 38143
wait ing</w> 38105
a u 38098
st e</w> 38038
reme mber</w> 38035
ti ll</w> 37834
l ou 37641
fri end</w> 37597
c re 37563
l ine</w> 37469
ga me</w> 37355
st er</w> 37350
a d 37293
f la 37234
b le 37136
man y</w> 37121
e st</w> 37075
a t 37053
f ound</w> 37011
li st 36916
f ly</w> 36894
u sed</w> 36844
co ld</w> 36812
m p</w> 36809
r ound</w> 36682
se r 36681
v en 36617
un d</w> 36591
s a</w> 36531
swe et</w> 36350
drea ms</w> 36349
s or 36345
an g</w> 36315
wi sh</w> 36228
li e</w> 36046
dea d</w> 35939
p r 35855
ck ed</w> 35774
se en</w> 35768
g in</w> 35723
b out</w> 35625
th in</w> 35624
pp ed</w> 35621
a r</w> 35569
a ss</w> 35459
an y</w> 35450
on ce</w> 35415
wor k</w> 35351
h al 35272
f ol 35261
ch e</w> 35175
w ing</w> 35136
p er</w> 35111
st re 34971
n g</w> 34906
d i</w> 34906
k new</w> 34884
se t</w> 34872
ch es</w> 34809
cra zy</w> 34770
sp e 34717
gett ing</w> 34615
qu e 34483
clo se</w> 34322
bea t</w> 34155
m ean</w> 34071
h y 34020
th ough</w> 33975
do or</w> 33937
hel p</w> 33930
m en</w> 33804
ho l 33781
s mo 33758
ch or 33741
sh i 33737
c ou 33689
u h</w> 33628
on es</w> 33562
t en</w> 33545
si l 33541
s it 33535
b lo 33524
li ving</w> 33524
lo rd</w> 33483
ea t</w> 33252
b l 33251
op en</w> 33205
ch o 33067
un til</w> 32959
c la 32950
un der</w> 32903
no body</w> 32852
h on 32809
e ly</w> 32729
fri ends</w> 32631
ki ss</w> 32601
f ight</w> 32548
b ye</w> 32521
d u</w> 32457
st u 32438
blu e</w> 32241
who le</w> 32161
c oun 32139
li es</w> 32105
af ter</w> 32100
d eep</w> 32099
la te</w> 32078
e mp 31991
. .</w> 31953
d ra 31902
o l</w> 31820
da m 31818
c tion</w> 31615
ma s</w> 31499
e s 31486
s on 31441
lo se</w> 31403
ro ll</w> 31382
lea r 31355
b ra 31324
s un 31322
j e</w> 31284
tou ch</w> 31254
ha te</w> 31248
tr ying</w> 31177
to ok</w> 31162
bea u 31155
h ell</w> 31150
er o</w> 31112
be h 31066
for get</w> 30897
beh ind</w> 30744
you ng</w> 30676
y e 30632
g ro 30603
ma kes</w> 30512
gr ound</w> 30505
chor us</w> 30503
s li 30457
go es</w> 30358
l ls</w> 30336
bloo d</w> 30316
c r 30190
se r</w> 30142
mu si 30112
pp in</w> 30056
you r 30053
g en 30050
gir ls</w> 29938
ma y</w> 29906
yo ne</w> 29895
m er 29851
hear d</w> 29722
goo d 29669
sh ine</w> 29619
i se</w> 29553
h un 29539
n y</w> 29510
some times</w> 29473
w er</w> 29429
sl eep</w> 29375
ã © 29353
your self</w> 29330
b ar 29301
dar k</w> 29257
x t</w> 29219
t el 29149
under stand</w> 29013
ho t</w> 28999
wa ke</w> 28976
dr in 28930
w ea 28902
ch t</w> 28877
h a</w> 28824
an s</w> 28690
d in</w> 28615
m o</w> 28385
ma tter</w> 28312
k ind</w> 28296
al right</w> 28046
smi le</w> 27950
d le</w> 27896
l ling</w> 27878
to day</w> 27833
y ' 27757
t es</w> 27742
el se</w> 27706
m ing</w> 27600
la ug 27588
m b</w> 27560
hou se</w> 27512
c ity</w> 27483
lo t</w> 27418
h - 27402
tea rs</w> 27389
ne xt</w> 27372
s ound</w> 27331
ff er 27316
n in</w> 27312
p ing</w> 27214
m ed</w> 27164
ro ad</w> 27121
i es</w> 27091
rea t</w> 27083
w in</w> 27059
t i</w> 26979
l li 26968
n ee 26965
f un 26960
any thing</w> 26920
yea rs</w> 26862
tru th</w> 26833
t or 26802
musi c</w> 26699
kno ws</w> 26590
mor ning</w> 26512
list en</w> 26457
r ing</w> 26419
l and</w> 26413
la y</w> 26347
hea ven</w> 26243
some body</w> 26218
run ning</w> 26190
wor d</w> 26143
wo man</w> 26130
ki ll</w> 26126
- -</w> 26078
gu ess</w> 26048
mi ss</w> 26043
mm er</w> 26035
ti ons</w> 26021
mo st</w> 26017
in gs</w> 26010
ea ch</w> 25969
h h</w> 25957
as k</w> 25944
lon ely</w> 25902
b ed</w> 25895
wa r</w> 25881
n er</w> 25866
o s</w> 25857
y' all</w> 25856
wh ite</w> 25852
tt y</w> 25813
ro om</w> 25764
c lea 25717
sa w</w> 25670
ã ©</w> 25609
c on</w> 25601
ch ri 25571
chan ce</w> 25530
dam n</w> 25448
l la 25402
bro ken</w> 25363
h or 25299
g la 25285
par ty</w> 25283
a tion</w> 25247
ck in</w> 25199
ea sy</w> 25184
ho o 25153
happ y</w> 25129
p or</w> 25116
sc rea 25074
d ou 25069
w ent</w> 25026
f el 25008
sta r</w> 24969
p en 24925
an do</w> 24900
w ind</w> 24839
ar ms</w> 24828
to p</w> 24811
si on</w> 24736
s sing</w> 24683
d ge</w> 24665
c lu 24627
ll ed</w> 24611
n s</w> 24526
g ed</w> 24516
ca r</w> 24455
u m</w> 24439
p or 24395
dea th</w> 24374
pro mi 24329
str ong</w> 24310
ga ve</w> 24209
da s</w> 24181
con tro 24179
d dy</w> 24168
f ine</w> 24164
fuck in</w> 24075
fu ll</w> 24048
bo o 23922
c li 23891
an k</w> 23867
l ights</w> 23780
t ly</w> 23762
bur n</w> 23732
p ea 23719
ali ve</w> 23692
fuck ing</w> 23682
y ed</w> 23663
di s 23636
a - 23622
i m 23612
see ms</w> 23607
a tt 23569
sin ce</w> 23556
a ir</w> 23524
st ea 23520
k ee 23518
sa ve</w> 23452
hur t</w> 23448
p t</w> 23421
pp ing</w> 23402
f ear</w> 23340
sc ar 23334
fal ling</w> 23328
g le</w> 23287
a te</w> 23259
b ri 23228
ou t 23224
d ev 23214
gu n</w> 23194
w it</w> 23187
t y 23147
st a</w> 23145
stre et</w> 23126
c ru 23036
hi de</w> 23035
ã  22959
beau ti 22911
wan ted</w> 22824
m ou 22807
d ont</w> 22794
ck ing</w> 22760
star s</w> 22731
sp ea 22701
bor n</w> 22698
sh ed</w> 22660
i ' 22654
tri ed</w> 22643
go in</w> 22546
thin king</w> 22545
ug ht</w> 22525
sp o 22479
m on</w> 22464
flo or</w> 22450
beauti ful</w> 22361
c ur 22351
fe et</w> 22287
n i</w> 22177
fa st</w> 22161
fee ls</w> 22145
r hy 22136
re st</w> 22125
com p 22073
er i 22063
good bye</w> 22027
c ing</w> 22026
wa tch 22017
al ong</w> 21975
ste p</w> 21963
pa st</w> 21955
won der</w> 21946
f le 21921
rea son</w> 21912
i st</w> 21875
sha ke</w> 21788
so on</w> 21735
k in 21704
bo ys</w> 21699
p lan 21673
b al 21542
ch ing</w> 21534
foo l</w> 21478
lo s</w> 21450
w el 21357
pre tty</w> 21357
th row</w> 21337
b en 21325
un a</w> 21321
di r 21313
a pp 21303
k o 21254
di ffer 21240
d re 21161
s low</w> 21123
g lo 21086
s y 20996
ma ma</w> 20981
me mor 20981
wa ter</w> 20955
ver y</w> 20920
ta l</w> 20907
be ing</w> 20882
h igh 20871
s it</w> 20744
ph one</w> 20734
dro p</w> 20722
b a</w> 20719
contro l</w> 20693
di es</w> 20681
de m</w> 20578
mo ther 20483
th ree</w> 20463
pa y</w> 20442
rea d</w> 20297
c y</w> 20280
stra ight</w> 20274
tt a</w> 20257
t wi 20237
b it</w> 20224
ge ts</w> 20218
mo on</w> 20201
be t 20119
la s</w> 20107
c o</w> 20068
sh in 20049
de st 20025
ma king</w> 20019
a bo 19981
b low</w> 19843
to mor 19789
s and</w> 19776
mi d 19771
s pa 19768
stor y</w> 19745
we en</w> 19737
do ing</w> 19733
st ed</w> 19729
su ch</w> 19692
sh oo 19665
c ed</w> 19660
ar d</w> 19651
i on</w> 19622
ssi on</w> 19622
s al 19558
do w</w> 19558
t in 19555
h o</w> 19509
pu ll</w> 19494
f o 19383
ta in</w> 19381
gett in</w> 19363
b er 19344
co ol</w> 19324
ever yone</w> 19301
p a</w> 19272
al s</w> 19240
tomor row</w> 19229
s la 19217
u t</w> 19212
pi e 19191
c er 19174
fol low</w> 19166
se a</w> 19155
bit ches</w> 19105
s ig 19092
ca tch</w> 19045
' bout</w> 18984
cu t</w> 18963
st ree 18947
t re 18945
bet ween</w> 18904
ll in</w> 18668
e ye</w> 18664
mo ment</w> 18624
stan ding</w> 18624
p l 18591
tr ou 18587
do m</w> 18554
ra p</w> 18552
up on</w> 18509
v a</w> 18490
sh ing</w> 18407
f re 18382
st ri 18345
i ma 18338
l ly</w> 18333
me et</w> 18282
su s</w> 18252
no thin</w> 18208
tal king</w> 18165
ã ³ 18138
b t</w> 18132
per fe 18110
stree ts</w> 18078
a part</w> 18064
d ru 18051
ã ¡ 18022
pi c 18006
ca l</w> 17987
ou r 17965
un k</w> 17915
chri st 17891
mo ther</w> 17869
abo ve</w> 17865
fu n</w> 17855
th a 17791
c rea 17788
ri se</w> 17775
ra id</w> 17771
g ar 17766
ver se</w> 17680
l t</w> 17608
lo ved</w> 17585
th ers</w> 17569
oo d</w> 17561
en s</w> 17559
w ee 17525
be g 17483
tr yin</w> 17456
g es</w> 17431
com o</w> 17423
f ree 17413
l ' 17389
star ted</w> 17387
mi lli 17386
st y 17379
drin k</w> 17368
sor ry</w> 17345
s s 17318
t ight</w> 17312
com in</w> 17309
t an 17291
m ma</w> 17285
' til</w> 17253
d on 17251
tur ned</w> 17249
b an 17241
kno wn</w> 17236
ti c</w> 17224
a a 17170
str an 17151
af raid</w> 17145
ã ­ 17082
chi ld</w> 17065
fel t</w> 17061
ti red</w> 17042
loo kin</w> 17034
m it</w> 17021
am or</w> 16985
ca ught</w> 16984
h er 16914
l le 16889
sho t</w> 16868
brea th</w> 16867
ta king</w> 16863
sa ys</w> 16827
f l 16825
ã ¼ 16814
ta kes</w> 16804
wh at 16790
te st</w> 16735
pa ss</w> 16734
g ri 16733
sp i 16731
wi ld</w> 16720
fr ont</w> 16713
bur ning</w> 16712
y et</w> 16701
pea ce</w> 16681
tr ust</w> 16640
lo w 16626
f li 16621
s ki 16611
hoo d</w> 16607
j a</w> 16585
se em</w> 16580
en e</w> 16565
ha ir</w> 16560
rea ch</w> 16532
hon ey</w> 16523
oug h 16522
che ck</w> 16516
t un 16510
vo ice</w> 16467
nigga z</w> 16428
any more</w> 16427
ear th</w> 16425
t ers</w> 16378
lo ving</w> 16375
si ck</w> 16375
chi l 16330
wal king</w> 16326
po wer</w> 16245
who a</w> 16222
a ge</w> 16212
en ed</w> 16167
m et</w> 16111
u te</w> 16106
hear ts</w> 16087
ã ¤ 16083
smo ke</w> 16057
bo th</w> 16055
se ar 16047
n on</w> 15965
ma d</w> 15932
an sw 15912
g reat</w> 15881
christ mas</w> 15864
st ru 15827
c s</w> 15822
laug h 15816
w all</w> 15802
lou d</w> 15801
go ld</w> 15782
i s 15780
dar k 15775
o ver 15760
en g 15757
lear n</w> 15757
differ ent</w> 15757
mo s</w> 15745
st ing</w> 15738
bl ind</w> 15736
da ddy</w> 15730
w en 15684
k ne 15640
en ing</w> 15620
a y</w> 15619
pra y</w> 15604
cal ling</w> 15546
la dy</w> 15486
s kin</w> 15475
bi r 15446
ki ds</w> 15368
sl ee 15336
fa mi 15334
l y 15295
clea r</w> 15291
k a</w> 15271
er ed</w> 15269
dri ve</w> 15229
c ' 15227
en d 15174
p an 15152
ou l 15149
f an 15146
ge l</w> 15110
te mp 15110
spea k</w> 15102
mou th</w> 15091
su mmer</w> 15063
o c 15046
hol ding</w> 15042
ba be</w> 15040
promi se</w> 15005
what ever</w> 15000
sa d</w> 14979
ch ar 14978
je sus</w> 14900
li ves</w> 14885
k y</w> 14858
sh or 14856
i mp 14814
wan ts</w> 14812
th u 14750
it h</w> 14750
oun ds</w> 14724
de ci 14721
se con 14711
no r 14707
bro ke</w> 14676
po p</w> 14659
sa ying</w> 14649
brea the</w> 14637
se cre 14633
mi r 14601
y - 14590
f ra 14569
f low</w> 14560
clu b</w> 14543
m ur 14525
won der 14513
li ps</w> 14506
hal f</w> 14469
th ro 14464
s ses</w> 14454
ni ce</w> 14420
al e</w> 14400
perfe ct</w> 14382
k er</w> 14351
su pp 14345
di o</w> 14337
do g</w> 14332
ck y</w> 14304
you rs</w> 14287
or s</w> 14282
s qu 14277
yea r</w> 14266
par a</w> 14245
st er 14229
d on</w> 14212
tt ing</w> 14205
t to</w> 14193
re ali 14169
sty le</w> 14143
g un 14137
d - 14115
t or</w> 14081
c ted</w> 14068
i' ma</w> 14049
tt e</w> 14047
wor th</w> 14020
c ti 13994
bla me</w> 13992
tal kin</w> 13991
v ers</w> 13971
an ce</w> 13928
fee lin</w> 13927
e u 13918
f our</w> 13891
g er 13846
igh t 13844
al ready</w> 13842
co lo 13842
g row</w> 13834
a i 13834
ar y</w> 13810
da d</w> 13799
th ou 13783
z i 13774
ro ss</w> 13759
ck et</w> 13757
c ant</w> 13756
y er</w> 13752
ci al</w> 13741
dr en</w> 13733
ni cht</w> 13721
cal led</w> 13698
o b 13695
bro ther</w> 13689
p le</w> 13664
de l</w> 13654
f rea 13642
chil dren</w> 13614
z a</w> 13611
b b 13583
n ights</w> 13573
out side</w> 13562
st s</w> 13560
kee ps</w> 13515
so l 13489
h h 13482
sch oo 13463
b all</w> 13408
r en 13378
emp ty</w> 13351
ac t</w> 13341
sp ir 13322
whi ch</w> 13322
pro ble 13284
fa i 13265
k ey</w> 13258
lea d</w> 13235
z ed</w> 13210
sh es</w> 13205
ac ross</w> 13193
jo y</w> 13192
c en 13186
in st</w> 13182
d ig 13181
an gel</w> 13174
e - 13173
s sy</w> 13166
un i 13153
er a</w> 13148
dir ty</w> 13131
gi ving</w> 13110
fu ture</w> 13078
b right</w> 13076
b ang</w> 13070
b en</w> 13065
sig n</w> 13061
di a 13053
every day</w> 13049
ri ver</w> 13044
d in 13019
s m 13016
sp end</w> 12996
y a 12986
me ant</w> 12970
ch ed</w> 12965
it a</w> 12954
pi ck</w> 12937
qui ero</w> 12935
ho es</w> 12915
dark ness</w> 12911
car ry</w> 12907
bu il 12889
ba b 12870
gu e</w> 12867
f ell</w> 12861
ta ste</w> 12860
fi ve</w> 12839
a int</w> 12829
tra in</w> 12827
some where</w> 12812
dan cing</w> 12810
sen d</w> 12798
kne es</w> 12796
scar ed</w> 12791
lo ver</w> 12779
g en</w> 12777
ee l</w> 12741
m in</w> 12732
g y</w> 12706
aga inst</w> 12665
fin ally</w> 12665
n t</w> 12662
m oun 12649
ea rs</w> 12648
i ve</w> 12621
s u</w> 12598
p in</w> 12596
ga r</w> 12578
sen t</w> 12573
watch ing</w> 12572
ã³ n</w> 12569
t ear</w> 12561
ri ed</w> 12553
lea ving</w> 12543
fa ther</w> 12530
po li 12520
do ws</w> 12519
si mp 12517
do in</w> 12493
j ' 12492
ro r</w> 12487
cro ss</w> 12463
c le</w> 12451
v al 12450
se n</w> 12450
fa ith</w> 12446
ea th</w> 12439
t - 12437
mi sta 12422
milli on</w> 12376
bu y</w> 12374
tr y 12367
d ' 12330
d ly</w> 12327
mo ving</w> 12317
ki d</w> 12317
d ear</w> 12312
k u 12307
n ear</w> 12301
d ers</w> 12285
sin ging</w> 12278
pla ying</w> 12254
ye a</w> 12254
nu mber</w> 12235
sw ear</w> 12231
l er</w> 12174
l la</w> 12166
secon d</w> 12150
gre en</w> 12145
do s</w> 12143
mother fuck 12142
w a</w> 12141
ma gi 12135
di sa 12113
ki ck</w> 12076
que sti 12066
ju mp</w> 12063
b et</w> 12057
lo vin</w> 12047
ka y</w> 12033
blo ck</w> 12033
li vin</w> 12029
sur vi 12003
ta n</w> 11994
dev il</w> 11976
e in</w> 11968
v y</w> 11961
el s</w> 11950
g ers</w> 11947
qu i</w> 11941
cr ying</w> 11935
schoo l</w> 11929
d ying</w> 11927
r a</w> 11922
loo ks</w> 11914
th ough 11911
st one</w> 11907
le ts</w> 11881
se a 11876
ma l</w> 11866
yo n 11848
vo l 11837
pla in</w> 11834
b rain</w> 11817
wor ry</w> 11812
s ight</w> 11765
di ck</w> 11736
cro w 11736
o - 11728
cu z</w> 11725
fi ll</w> 11692
thou sand</w> 11691
gu y</w> 11674
z u</w> 11649
s ign 11647
de ser 11636
i e</w> 11626
lo ves</w> 11598
c er</w> 11592
hu h</w> 11577
sti ck</w> 11549
par a 11549
b li 11548
laug h</w> 11540
though ts</w> 11534
pa s</w> 11532
th a</w> 11524
i ll</w> 11520
sp er 11504
tur ning</w> 11499
vi e 11496
sh all</w> 11491
so lo</w> 11484
é  11468
k u</w> 11444
ã ± 11419
screa m</w> 11418
every where</w> 11408
bo tt 11395
p ur 11386
ã ­</w> 11374
pic ture</w> 11369
with in</w> 11360
r an 11349
gu i 11347
si e</w> 11339
wi de</w> 11329
trou ble</w> 11312
f ig 11308
w ear</w> 11273
han g</w> 11268
ra in 11267
o kay</w> 11265
fami ly</w> 11244
l en</w> 11220
nee ds</w> 11216
i a</w> 11206
v or 11205
t ar 11199
d ee 11191
ab le</w> 11178
la r</w> 11172
le y</w> 11154
h r</w> 11148
dar ling</w> 11145
mi s 11133
run nin</w> 11127
p our</w> 11111
no where</w> 11100
ci r 11082
win dow</w> 11075
dou bt</w> 11071
dia mon 11038
in ter 11020
be li 11010
g an 10993
tel ling</w> 10992
shi p</w> 10984
w ed</w> 10983
pl us</w> 10977
th ank</w> 10971
th y</w> 10969
po int</w> 10962
wal ls</w> 10954
sha me</w> 10952
s wi 10949
l ar 10940
b ig 10938
gi m</w> 10935
mi r</w> 10933
z z 10919
ra ce</w> 10910
th es</w> 10881
p es</w> 10874
wr ite</w> 10872
chan ged</w> 10862
stu ck</w> 10861
sh oul 10835
tr o</w> 10826
ra ther</w> 10811
hea t</w> 10808
try na</w> 10805
min ute</w> 10802
co ver</w> 10800
pu sh</w> 10764
bo om</w> 10761
re al 10759
a g 10751
c lou 10718
o h- 10716
o o</w> 10714
war m</w> 10694
j un 10688
st y</w> 10687
f igh 10685
sh are</w> 10684
wa ste</w> 10671
loo ked</w> 10663
ig o</w> 10657
s na 10653
memor ies</w> 10647
t on</w> 10631
high er</w> 10596
in a</w> 10585
est a</w> 10580
spa ce</w> 10568
i c</w> 10560
sh ut</w> 10539
no s</w> 10529
e i 10514
be come</w> 10503
vi da</w> 10503
re cor 10501
v el 10500
sho es</w> 10489
sta te</w> 10458
wal ked</w> 10436
es ca 10436
an yone</w> 10435
wr it 10428
ã ¶ 10411
clo ser</w> 10409
ca sh</w> 10408
h n</w> 10387
lin gs</w> 10385
e le 10372
i ls</w> 10372
wi r</w> 10370
de si 10370
tr a</w> 10365
ch o</w> 10362
pa per</w> 10359
pie ce</w> 10353
m al 10351
ll er</w> 10349
war d</w> 10347
re spe 10341
ho mi 10337
wi e</w> 10327
b one</w> 10322
ck er</w> 10319
sc u 10318
v u 10316
fa de</w> 10312
coun t</w> 10296
answ er</w> 10287
in ning</w> 10270
in ed</w> 10265
j o</w> 10263
gr an 10252
a z 10251
ba ck 10239
blu es</w> 10234
se x</w> 10223
t t</w> 10213
ch a</w> 10210
en e 10202
ho ly</w> 10201
t end</w> 10183
shoo t</w> 10158
brea king</w> 10154
sen se</w> 10140
s ci 10127
ev il</w> 10112
k an 10107
.. .. 10101
e f</w> 10096
clo thes</w> 10045
ba r</w> 10043
some thin</w> 10043
f ar 10039
ch oo 10023
mb le</w> 10022
di ed</w> 10021
win gs</w> 10016
be long</w> 10014
se x 9965
e ter 9964
cou r 9962
pri de</w> 9956
c i</w> 9939
m m</w> 9931
fe w</w> 9929
w ine</w> 9919
ri ch</w> 9918
fun ny</w> 9914
pu e 9903
dea l</w> 9897
th ir 9883
ã ¡</w> 9870
re gre 9870
lo sing</w> 9869
mi ch</w> 9853
a ma 9852
k i</w> 9851
ima g 9850
b oun 9827
u r</w> 9825
g ang 9823
me ans</w> 9817
b on 9816
son gs</w> 9789
sil ence</w> 9779
bo w</w> 9771
am eri 9759
te ly</w> 9757
t re</w> 9756
sh ar 9751
mid dle</w> 9736
i - 9734
s sa 9733
be yon 9733
thin kin</w> 9722
lon ger</w> 9704
dr ed</w> 9702
ã¡ s</w> 9676
ma in</w> 9670
t reat</w> 9657
ha y</w> 9656
magi c</w> 9654
b ru 9618
t ree</w> 9617
si x</w> 9617
do o</w> 9614
s me 9611
stor m</w> 9607
r in 9597
ra dio</w> 9596
ou tta</w> 9594
th i 9569
pp er</w> 9563
fi ed</w> 9560
su per 9559
some day</w> 9552
p in 9545
lin es</w> 9544
bu st</w> 9538
est er 9515
sw ee 9510
mi les</w> 9492
hu man</w> 9480
y ester 9479
to do</w> 9479
in san 9473
f it</w> 9443
p al 9433
sa fe</w> 9430
kin da</w> 9429
ma kin</w> 9426
na h</w> 9426
per o</w> 9426
coun try</w> 9423
men ts</w> 9408
hun dred</w> 9394
re p 9384
g ho 9380
an a</w> 9360
tha ts</w> 9351
al most</w> 9335
f er 9331
ti s 9324
b er</w> 9318
b lin 9296
a head</w> 9295
it i 9292
pla n</w> 9280
fee lings</w> 9279
pu ssy</w> 9276
b s</w> 9273
g - 9269
ã £ 9259
au f</w> 9257
hu st 9254
shin ing</w> 9246
ca p 9242
ang els</w> 9234
ti es</w> 9232
wo men</w> 9227
memor y</w> 9217
n er 9216
sin gle</w> 9201
sp ar 9195
l i</w> 9189
beyon d</w> 9183
stran ge</w> 9178
sm all</w> 9176
clea n</w> 9169
vi e</w> 9159
l ying</w> 9157
fa ke</w> 9148
drea ming</w> 9130
tra ck</w> 9129
e h</w> 9109
p - 9108
me ss</w> 9107
sa yin</w> 9105
z ing</w> 9102
w ers</w> 9097
free dom</w> 9090
ch en</w> 9086
co s</w> 9069
cra ck</w> 9068
d ness</w> 9059
er es</w> 9050
di ch</w> 9029
tt en</w> 9028
st ood</w> 8997
l it</w> 8991
w oo 8989
ä ± 8982
d ry</w> 8979
en ding</w> 8978
gi ven</w> 8970
ca se</w> 8961
wh a 8941
mi ssing</w> 8941
ke pt</w> 8940
ga s</w> 8932
gla ss</w> 8931
e m 8920
ã£ o</w> 8917
hel lo</w> 8891
clou ds</w> 8889
e mb 8887
p o</w> 8871
cor ner</w> 8867
m r 8859
ho le</w> 8859
ra n</w> 8856
gi e</w> 8855
wea k</w> 8834
b and</w> 8827
reali ze</w> 8827
wor king</w> 8822
any way</w> 8820
de f 8804
yester day</w> 8803
' round</w> 8795
he ld</w> 8795
cu ando</w> 8791
e u</w> 8786
tur es</w> 8781
s now</w> 8779
ã § 8772
in ess</w> 8764
happ en</w> 8760
mp in</w> 8755
o f 8750
we st</w> 8750
secre t</w> 8736
disa pp 8728
qui ck</w> 8724
go l 8711
kno ck</w> 8711
beli ev 8697
te en</w> 8689
ch in</w> 8685
spe cial</w> 8684
l le</w> 8676
v an 8674
da wn</w> 8660
mi c</w> 8655
ki lling</w> 8647
a sk 8644
th s</w> 8633
sc ene</w> 8621
dan s</w> 8613
t us</w> 8610
ci ous</w> 8610
ear ly</w> 8585
l ev 8580
p ed</w> 8565
a go</w> 8554
comp le 8551
choo se</w> 8548
li l</w> 8543
do w 8542
ga l</w> 8536
lla r</w> 8519
s low 8513
e ts</w> 8504
b in</w> 8504
er a 8498
fa ir</w> 8490
po or</w> 8490
sh out</w> 8488
co a 8488
ty pe</w> 8482
i o</w> 8476
p lo 8476
oc ean</w> 8475
pla yed</w> 8474
do pe</w> 8473
sit ting</w> 8471
mi ra 8465
ã  8462
yo r 8459
tr an 8458
jo b</w> 8445
be gin</w> 8444
crow d</w> 8444
oo oo 8440
fuck ed</w> 8435
la dies</w> 8434
m un 8420
sp it</w> 8419
tur ns</w> 8419
w l</w> 8416
.. ..</w> 8415
g li 8409
pa id</w> 8407
whi sp 8401
v in 8394
wi fe</w> 8389
tt er 8379
k ar 8376
n one</w> 8359
sha dows</w> 8359
d at</w> 8349
s sin</w> 8348
se ll</w> 8346
it u 8336
dest in 8315
glo ry</w> 8312
en to</w> 8309
br ought</w> 8305
ta ble</w> 8302
stea d</w> 8295
ha ving</w> 8289
pre tend</w> 8287
bo x</w> 8271
w ood</w> 8249
hur ts</w> 8249
d ust</w> 8247
c ts</w> 8243
ly ri 8238
e mo 8232
gla d</w> 8227
bab ly</w> 8220
ne ck</w> 8216
g rea 8212
ti on 8210
gra b</w> 8209
pro bably</w> 8208
ra ise</w> 8207
ma ch 8203
ma is</w> 8192
di r</w> 8192
s ar 8188
z e 8186
ã­ a</w> 8179
dre ss</w> 8175
no ti 8165
gra ce</w> 8164
sti c</w> 8162
it ion</w> 8161
stan ce</w> 8151
o u</w> 8140
ro llin</w> 8131
z en</w> 8128
m it 8124
fa ct</w> 8123
lear ned</w> 8117
mir ror</w> 8116
tt in</w> 8115
e in 8103
lo ck</w> 8102
de li 8101
some how</w> 8090
tun e</w> 8089
n ine</w> 8087
ga n</w> 8087
s k</w> 8076
se ven</w> 8063
spo t</w> 8060
n un 8058
r es</w> 8057
br and</w> 8055
c ent</w> 8044
c tor</w> 8038
h our</w> 8034
fa te</w> 8028
wel come</w> 8028
respe ct</w> 8027
ho p</w> 8022
un t</w> 8022
pr in 8018
lu ck</w> 8015
c in</w> 8012
k o</w> 8008
sc re 8001
br in 7985
loo se</w> 7983
fan ta 7974
simp le</w> 7960
so y</w> 7951
ch ea 7949
ex c 7947
n in 7946
win ter</w> 7946
_ _ 7938
co l 7925
fi lled</w> 7916
in stead</w> 7909
y el 7900
que en</w> 7900
cou ple</w> 7895
slow ly</w> 7888
ou d</w> 7881
eng th</w> 7869
v o</w> 7866
ski es</w> 7864
bu i 7859
bu sin 7855
ra i 7855
cre w</w> 7851
en do</w> 7845
st up 7839
desi re</w> 7839
o t</w> 7837
g he 7833
t rea 7818
ba g</w> 7807
c ree 7799
re la 7797
s ons</w> 7785
j i 7782
vo i 7774
me an 7765
sa tis 7762
str on 7762
con fu 7759
spir it</w> 7757
survi ve</w> 7744
gu ar 7738
insan e</w> 7735
qu ite</w> 7734
u e</w> 7728
happ ened</w> 7714
stup id</w> 7708
u l</w> 7707
b ound</w> 7699
ni e</w> 7699
u re</w> 7698
di g</w> 7692
clo ck</w> 7691
al l 7690
figh ting</w> 7689
bui ld</w> 7683
men tal</w> 7677
nee ded</w> 7674
ro lling</w> 7665
u x</w> 7657
por que</w> 7656
bo ok</w> 7648
gun s</w> 7645
la ter</w> 7627
lea ves</w> 7627
hea vy</w> 7626
ta r</w> 7625
ta ken</w> 7616
el la</w> 7615
tre es</w> 7612
bi rd</w> 7601
da r</w> 7585
cha in</w> 7580
min ds</w> 7579
t v</w> 7577
sc ri 7577
we ed</w> 7576
v or</w> 7572
b ought</w> 7564
supp o 7551
mo i</w> 7547
bi en</w> 7539
h at</w> 7536
do ch</w> 7535
f y</w> 7532
ug h 7529
busin ess</w> 7525
lu cky</w> 7517
s se 7516
esca pe</w> 7501
th an 7495
t wen 7491
ou rs</w> 7490
l un 7483
s ma 7477
m my</w> 7471
de st</w> 7468
motherfuck er</w> 7461
pa ck</w> 7455
ch ee 7454
pri ce</w> 7452
dr unk</w> 7440
fla me</w> 7433
t ã 7425
rhy me</w> 7423
pla yin</w> 7409
tt ers</w> 7404
m er</w> 7390
0 0</w> 7390
b ones</w> 7385
any body</w> 7385
in no 7381
beau ty</w> 7381
su b 7365
rhy th 7360
re turn</w> 7356
frea k</w> 7350
moun tain</w> 7347
p un 7343
ti e</w> 7341
suppo sed</w> 7335
qu ' 7334
c' mon</w> 7325
w er 7319
w ont</w> 7316
you re</w> 7315
a wake</w> 7312
ar s</w> 7294
kno wing</w> 7292
mur der</w> 7288
c in 7282
co o 7282
f at</w> 7278
sur pri 7278
en te</w> 7274
for give</w> 7265
s n 7259
ho me 7255
str ength</w> 7252
dou ble</w> 7250
ru les</w> 7244
fa ces</w> 7243
wi l 7238
sou th</w> 7236
mo vin</w> 7230
fre sh</w> 7226
ask ed</w> 7219
vie w</w> 7216
car s</w> 7211
m - 7210
lea st</w> 7208
lo ve 7205
k ni 7202
du mb</w> 7198
sol di 7198
ro a 7197
han ging</w> 7195
na l</w> 7175
x i 7173
sear ching</w> 7172
sel ves</w> 7169
sp ent</w> 7164
fle sh</w> 7152
yor k</w> 7149
ble ed</w> 7141
si ons</w> 7139
att a 7132
h hh</w> 7131
star ts</w> 7128
ch er</w> 7126
fal ls</w> 7125
thu g</w> 7122
w re 7105
ch i</w> 7104
i' mma</w> 7104
we ight</w> 7096
bo ttle</w> 7094
a u</w> 7083
ro man 7070
screa ming</w> 7058
slee ping</w> 7049
t z 7048
d j</w> 7046
li ft</w> 7035
be side</w> 7034
fi f 7034
cri ed</w> 7034
sh in</w> 7031
ja ck</w> 7030
cor az 7025
k it 7024
h it 7011
li fe 7008
mo mma</w> 7002
fin al</w> 7000
ne y</w> 6999
y uh</w> 6998
ga mes</w> 6991
d are</w> 6987
sh el 6980
proble m</w> 6969
nu r</w> 6965
ar m</w> 6960
b les</w> 6956
ea st</w> 6956
hear t 6951
ghe tto</w> 6947
real ity</w> 6924
hou rs</w> 6919
stu ff</w> 6917
sun shine</w> 6914
sen ti 6908
gra ve</w> 6906
ba ttle</w> 6905
sc ra 6897
di re 6896
igh ty</w> 6892
rhyth m</w> 6887
ho e</w> 6878
c' est</w> 6877
war ds</w> 6868
sli p</w> 6865
o hh</w> 6854
i sh</w> 6851
si ster</w> 6850
lo cked</w> 6839
ì  6829
th ri 6825
s to</w> 6818
h i</w> 6812
n ight 6811
fin gers</w> 6807
che st</w> 6804
pr oud</w> 6803
tri p</w> 6800
ja h</w> 6799
ty - 6799
sha dow</w> 6797
ce i 6795
vo y</w> 6790
ne ws</w> 6781
de s 6774
ex pe 6774
e ld</w> 6770
st are</w> 6767
wen n</w> 6760
o thers</w> 6753
mr .</w> 6749
a w 6748
h n 6741
fe ed</w> 6739
do llar</w> 6729
car e 6728
tch a</w> 6721
vi ol 6712
wee k</w> 6712
m is</w> 6711
st ers</w> 6709
pie ces</w> 6705
c at</w> 6701
bea ts</w> 6699
mid night</w> 6693
f fe 6689
ro se</w> 6682
ton gue</w> 6680
pla ces</w> 6670
questi on</w> 6668
ci a</w> 6661
st in</w> 6657
gho st</w> 6657
bri dge</w> 6654
cri me</w> 6648
sta ge</w> 6647
twi ce</w> 6644
har der</w> 6624
en a</w> 6614
pa in 6605
di me</w> 6597
sor row</w> 6593
s ounds</w> 6571
hea ds</w> 6569
ur ch</w> 6563
ra ge</w> 6561
pa th</w> 6558
ã ¨ 6551
ar e 6551
lo vers</w> 6542
gu it 6540
ri ous</w> 6539
bu n 6538
for m</w> 6536
gro wn</w> 6535
da n</w> 6532
s lu 6522
f - 6517
w ra 6515
el le</w> 6504
la w</w> 6503
ee ls</w> 6498
qu it</w> 6495
pro ve</w> 6494
t ' 6491
u l 6479
ri ding</w> 6470
vi sion</w> 6465
ce pt</w> 6461
pp ers</w> 6457
bl ee 6454
stea l</w> 6451
sme ll</w> 6450
pro te 6446
fi sh</w> 6444
ta kin</w> 6442
g al 6438
ta s</w> 6417
gol den</w> 6415
s wit 6410
b ree 6400
si emp 6399
wa ve</w> 6395
el o</w> 6392
ff er</w> 6385
wal kin</w> 6383
fa me</w> 6382
hi ll</w> 6378
siemp re</w> 6378
fl ying</w> 6371
e go</w> 6370
d ent</w> 6370
i k</w> 6359
bro wn</w> 6359
li ar</w> 6358
sex y</w> 6354
c tor 6352
gro o 6333
bott om</w> 6330
lu tion</w> 6327
mer cy</w> 6325
ro ckin</w> 6324
re si 6324
ce le 6323
mo on 6311
shor t</w> 6309
z a 6306
ben eath</w> 6301
su d 6299
i rs</w> 6289
al ing</w> 6289
ex plain</w> 6280
l ig 6274
wh en 6263
sou ls</w> 6256
so ft</w> 6250
cal i 6241
bu l 6239
pa ti 6230
na da</w> 6228
ea se</w> 6216
po ssi 6216
any where</w> 6214
stron ger</w> 6214
boun ce</w> 6195
buil t</w> 6185
fal len</w> 6181
m bi 6178
ho ping</w> 6172
com for 6164
e dge</w> 6162
v el</w> 6151
mi se 6146
cha se</w> 6134
when ever</w> 6132
s - 6130
i z 6127
s se</w> 6126
dri ving</w> 6126
diamon ds</w> 6118
f i</w> 6115
t ough</w> 6105
e sto 6104
un e</w> 6104
me di 6094
g t</w> 6092
dest ro 6092
p on 6088
ri es</w> 6076
sil ver</w> 6070
chi ck</w> 6068
la id</w> 6064
v on</w> 6062
to s</w> 6057
tt ered</w> 6041
bit e</w> 6039
wo ah</w> 6037
wo ke</w> 6036
d or 6030
fig ure</w> 6022
se at</w> 6021
sw eat</w> 6012
dow n 6009
fin ger</w> 6005
ex plo 6003
ver sa 6002
v an</w> 5994
bro thers</w> 5994
gro wing</w> 5994
di se</w> 5993
bir ds</w> 5992
n eath</w> 5988
go tten</w> 5987
san ta</w> 5987
ba i 5982
ar ri 5972
fu r 5971
sh ir 5968
ne igh 5967
s wal 5965
sil ent</w> 5951
w et</w> 5947
m ighty</w> 5946
t all</w> 5946
wh er 5944
s ca 5943
p hi 5937
ma ster</w> 5930
cu er 5927
ten go</w> 5910
dir t</w> 5910
st ant</w> 5906
me in</w> 5892
pa ssion</w> 5892
recor d</w> 5881
rep eat</w> 5876
in ten 5859
ssa ge</w> 5859
d re</w> 5858
ve z</w> 5844
gu il 5841
re fle 5839
ca tion</w> 5838
da y 5834
fa vor 5832
foo t</w> 5826
la - 5823
ta ins</w> 5822
fi x</w> 5819
ig n</w> 5808
z u 5806
wa sh</w> 5806
colo r</w> 5806
ea l</w> 5805
sho ts</w> 5799
para dise</w> 5797
sp read</w> 5788
j an 5782
as king</w> 5777
be low</w> 5773
regre t</w> 5773
ver ed</w> 5772
ma g 5766
pre sen 5764
br ings</w> 5763
v i</w> 5753
t ee 5750
mista ke</w> 5742
t out</w> 5739
c us</w> 5732
c up</w> 5729
att en 5728
n ar 5723
tea ch</w> 5721
j er 5720
den y</w> 5720
v ous</w> 5719
bo mb</w> 5711
pa ssed</w> 5709
ha n</w> 5706
ro te</w> 5702
mo ves</w> 5702
sw ing</w> 5698
ru sh</w> 5695
bu s</w> 5692
be l</w> 5689
s wa 5680
a po 5680
k ers</w> 5675
ge st</w> 5675
so ld</w> 5674
foo ls</w> 5674
see ing</w> 5670
rhy mes</w> 5669
ch u 5667
it ed</w> 5663
hor a</w> 5660
wait in</w> 5652
cha ins</w> 5649
cho ice</w> 5642
b re 5639
mo m</w> 5635
n ers</w> 5633
r o</w> 5629
ad di 5628
gang sta</w> 5628
l - 5624
ro o 5624
ti ve</w> 5624
voi ces</w> 5613
poli ce</w> 5612
li ved</w> 5609
gu ys</w> 5601
gi ves</w> 5599
ex i 5599
homi e</w> 5599
a ting</w> 5598
al le 5591
i ci 5586
o d</w> 5584
c les</w> 5567
hi story</w> 5567
chri st</w> 5567
ten der</w> 5561
deser ve</w> 5551
stru g 5548
d it</w> 5538
f ru 5538
mar y</w> 5533
e se</w> 5532
for ce</w> 5531
wea ther</w> 5527
c y 5526
ã ¨</w> 5524
bu ll 5520
bo ss</w> 5520
do ctor</w> 5515
st ore</w> 5512
w rote</w> 5510
pra ise</w> 5507
da ugh 5501
b es</w> 5493
hun g 5486
po i 5485
ã  5482
mm m</w> 5478
co lle 5475
favor ite</w> 5468
su gar</w> 5462
ã ³</w> 5459
pa int</w> 5456
mi ssion</w> 5455
ch am 5449
qui et</w> 5447
nun ca</w> 5444
y u 5441
do ors</w> 5436
ear ing</w> 5433
stran ger</w> 5432
m ã¡s</w> 5425
wor se</w> 5425
flo wers</w> 5424
laugh ing</w> 5423
sit tin</w> 5419
lo ad</w> 5414
lea n</w> 5408
imp or 5408
sear ch</w> 5403
wher ever</w> 5403
h en</w> 5401
ki lled</w> 5401
han dle</w> 5395
fol ks</w> 5394
vi r 5393
tea m</w> 5392
un s</w> 5391
un g</w> 5391
hung ry</w> 5390
fli p</w> 5388
k en 5387
kee ping</w> 5387
li sh</w> 5379
wa sted</w> 5376
w on</w> 5368
i i 5366
co ps</w> 5366
wa ves</w> 5365
o i</w> 5363
destin y</w> 5361
sha w 5358
na tion</w> 5355
me l 5352
su ck</w> 5352
fla mes</w> 5349
g ang</w> 5348
ck ets</w> 5343
sa r</w> 5338
fi l 5335
pu re</w> 5335
s le 5333
sc o</w> 5329
chi ll</w> 5325
f ears</w> 5324
esto y</w> 5319
pre s 5317
lyri cs</w> 5307
r t</w> 5302
a qu 5297
ri din</w> 5291
low ed</w> 5291
ta tion</w> 5289
su per</w> 5288
as l 5288
ene my</w> 5288
mach ine</w> 5288
kni fe</w> 5286
g y 5285
ã ª 5279
p lu 5277
happ iness</w> 5272
ho ok</w> 5271
dro w 5262
wonder ful</w> 5253
asl eep</w> 5251
ba ss</w> 5243
le gs</w> 5240
par k</w> 5240
wonder ing</w> 5240
tã º</w> 5240
r en</w> 5239
ce ss</w> 5239
jo s</w> 5234
mp ing</w> 5233
ste ps</w> 5228
ke ys</w> 5226
b o</w> 5221
am o</w> 5220
list ening</w> 5219
ca st</w> 5217
shoul der</w> 5211
me lo 5208
oo oh</w> 5208
ri sing</w> 5206
spe ed</w> 5206
re lea 5204
cal ls</w> 5200
sa s</w> 5196
ri p</w> 5195
li ed</w> 5194
gir l 5194
sit u 5193
proble ms</w> 5191
c ore</w> 5185
pu lled</w> 5184
m ' 5181
chan ging</w> 5174
vu el 5171
ar t</w> 5168
for e 5168
v as</w> 5167
love ly</w> 5162
c el 5159
no ch</w> 5158
e ve</w> 5157
n an 5154
cla ss</w> 5152
tel lin</w> 5151
ea si 5145
b - 5144
ra l</w> 5140
ta ught</w> 5137
ra y</w> 5136
ck en</w> 5136
big ger</w> 5130
est e</w> 5129
mista kes</w> 5125
clo sed</w> 5124
guit ar</w> 5124
sp in</w> 5123
be lls</w> 5119
cli mb</w> 5119
wi se</w> 5117
shaw ty</w> 5113
ho y</w> 5107
sun day</w> 5107
hur ry</w> 5103
brea ks</w> 5101
d d 5099
dro wn</w> 5095
foo d</w> 5094
me ssage</w> 5091
wh eel</w> 5084
th ang</w> 5083
hea ven 5083
s co 5078
po sit 5078
tee th</w> 5066
wor st</w> 5063
st rea 5062
ca te</w> 5060
fu lly</w> 5059
p ho 5053
pra yer</w> 5052
la tion</w> 5050
a ted</w> 5046
com me</w> 5046
ha ters</w> 5045
il lu 5044
cour se</w> 5043
stea dy</w> 5033
brea d</w> 5026
imag ine</w> 5021
under neath</w> 5019
po cket</w> 5016
y ard</w> 5013
re fu 5013
ei ther</w> 5013
atten tion</w> 5013
le tter</w> 5012
st eel</w> 5011
plan s</w> 5010
dee per</w> 5010
con ne 5009
gi vin</w> 5008
m c</w> 5007
f o</w> 5007
mise ry</w> 5007
wo l 5006
vi cti 5004
cri es</w> 5004
p on</w> 4993
pla y 4992
ni a</w> 4990
twen ty</w> 4990
cu l 4988
l igh 4987
h en 4982
con t 4971
fi ce</w> 4970
sp ell</w> 4968
c tions</w> 4966
th re 4966
pre ss</w> 4964
hi p</w> 4961
st in 4957
cele bra 4955
u lt</w> 4953
oo o</w> 4945
j' ai</w> 4945
car es</w> 4942
en t 4939
end less</w> 4939
whisp er</w> 4938
sp inning</w> 4936
bo dies</w> 4932
mo vie</w> 4929
bur ned</w> 4926
n - 4921
i ma</w> 4921
fr on 4919
b lan 4918
laugh ter</w> 4918
b i</w> 4917
gen er 4917
je al 4914
h ero</w> 4912
in de 4911
dre ssed</w> 4910
s ind</w> 4904
stan ds</w> 4903
j i</w> 4895
mi l 4894
fa ster</w> 4893
vi ce</w> 4893
gr ind</w> 4893
en a 4892
d et</w> 4891
bla ck 4889
drin king</w> 4889
re ly</w> 4883
sho ws</w> 4882
sa ved</w> 4881
wi cked</w> 4878
high way</w> 4877
jo hn</w> 4876
o pp 4872
brea thing</w> 4869
s ' 4868
do gs</w> 4868
no ise</w> 4867
c l 4866
de mon 4866
dar lin</w> 4863
j our 4861
lan g</w> 4859
f er</w> 4858
se i</w> 4852
cla p</w> 4846
te l</w> 4844
diamon d</w> 4840
c ig 4837
f lu 4835
da te</w> 4835
sp it 4833
de sper 4832
bur ns</w> 4831
d y 4830
be er</w> 4827
re main</w> 4824
bu m</w> 4822
d al 4817
sa cri 4816
so m</w> 4815
beg inning</w> 4815
star ing</w> 4814
j or</w> 4813
p it 4812
p le 4812
te le 4811
ë  4810
sa il</w> 4807
ca u 4805
eter n 4804
so li 4803
br igh 4801
th under</w> 4798
ja g</w> 4798
sli de</w> 4796
ch urch</w> 4793
sto pped</w> 4793
cal lin</w> 4789
bu sy</w> 4787
fun k</w> 4784
mp s</w> 4774
st em</w> 4773
d ough</w> 4770
cu re</w> 4770
disapp ear</w> 4770
bea ting</w> 4762
whi p</w> 4760
ca ts</w> 4759
z one</w> 4757
no se</w> 4755
mi es</w> 4745
ru le</w> 4745
can dy</w> 4742
r ings</w> 4741
ro cks</w> 4740
mb s</w> 4739
shor ty</w> 4738
surpri se</w> 4738
ma r</w> 4736
p ou 4730
hi ding</w> 4729
p unk</w> 4727
lo r</w> 4726
tru ck</w> 4720
op s</w> 4718
ig no 4716
sa i 4716
e t 4714
in es</w> 4714
si x 4714
di stance</w> 4713
le g 4713
ha sta</w> 4705
pic tures</w> 4705
tra vel 4701
bea r</w> 4700
s no 4697
sur ren 4696
ti ed</w> 4688
na ked</w> 4687
b end</w> 4680
han d 4680
lo gi 4671
ev ening</w> 4670
so f 4669
re co 4668
al les</w> 4667
happ ens</w> 4666
o th</w> 4665
sign s</w> 4663
li ck</w> 4658
fal lin</w> 4657
h in 4655
v ine</w> 4655
di vi 4655
' till</w> 4654
den n</w> 4654
fun ky</w> 4651
en ti 4647
t le</w> 4632
ol der</w> 4632
my ster 4632
ho ll 4631
ra z 4630
va tion</w> 4630
for got</w> 4629
ch er 4627
mi ssed</w> 4627
vi vi 4626
yel low</w> 4626
po se</w> 4625
emp o</w> 4625
for gotten</w> 4621
r ough</w> 4620
fi eld</w> 4618
coa st</w> 4617
bree ze</w> 4614
con fe 4613
writ ten</w> 4610
ti empo</w> 4607
tor n</w> 4606
st ro 4603
hea l</w> 4603
pue do</w> 4602
d ur 4597
wo o</w> 4595
men te</w> 4593
de o</w> 4589
ki ssed</w> 4587
pa ssing</w> 4583
mar k</w> 4582
e ight</w> 4581
g i</w> 4581
mp ed</w> 4579
so s</w> 4574
kin g 4571
ameri ca</w> 4569
dan n</w> 4563
mb ling</w> 4555
gr and</w> 4555
le tting</w> 4551
b ank</w> 4549
plea sure</w> 4546
bo o</w> 4545
sh i</w> 4544
atta ck</w> 4544
dru gs</w> 4540
sp ring</w> 4539
n ã£o</w> 4534
in stru 4534
ther es</w> 4534
jo e</w> 4530
su r</w> 4527
d den</w> 4526
a hora</w> 4525
ra s</w> 4525
sch e 4524
cla im</w> 4524
mu tha 4522
bo y 4520
par t 4519
sa tur 4518
oun ded</w> 4510
secre ts</w> 4509
rea sons</w> 4508
d dle</w> 4505
le an 4505
stre ss</w> 4505
l lo 4497
bu lle 4497
la tely</w> 4492
b by</w> 4488
f ea 4486
de ce 4485
hal le 4484
san g</w> 4482
cal m</w> 4478
cro wn</w> 4477
to i</w> 4476
st le</w> 4472
mean ing</w> 4472
questi ons</w> 4471
blee ding</w> 4468
pres sure</w> 4468
mun do</w> 4466
dan ger</w> 4458
min u 4458
be e 4456
je ans</w> 4456
a us</w> 4454
jo hn 4448
twi st</w> 4448
mo tion</w> 4443
wait ed</w> 4433
ac ting</w> 4431
our selves</w> 4431
re vo 4430
smo kin</w> 4429
au to 4426
ki sses</w> 4420
bit ter</w> 4420
go d 4414
differ ence</w> 4412
1 0</w> 4410
thre w</w> 4407
bla st</w> 4405
na ture</w> 4400
con sci 4400
mm ing</w> 4398
bu ck</w> 4395
ca ted</w> 4391
li ch</w> 4390
cha sing</w> 4390
di ce</w> 4388
buil ding</w> 4383
l ight 4382
be i</w> 4380
f ever</w> 4379
ee ts</w> 4379
k an</w> 4378
pre sent</w> 4378
b less</w> 4374
co vered</w> 4371
en er 4364
den ce</w> 4364
t ant</w> 4362
ameri can</w> 4361
re mind</w> 4360
promi ses</w> 4356
z z</w> 4354
lo a 4351
w ri 4349
in ing</w> 4349
li f 4345
da - 4345
rai sed</w> 4342
ju dge</w> 4338
sy stem</w> 4338
re ma 4337
bo at</w> 4335
ele c 4333
f ã¼ 4330
run s</w> 4330
a ye</w> 4329
wi shing</w> 4329
cer tain</w> 4328
gui de</w> 4327
le s 4322
sin gs</w> 4320
r y 4318
pa g 4317
ble ssed</w> 4317
jo in</w> 4316
deci de</w> 4314
surren der</w> 4313
qu ar 4310
su c 4310
an o</w> 4306
on to</w> 4302
pre cious</w> 4301
tr ig 4296
li qu 4294
brea k 4294
sa n</w> 4290
f fi 4289
bo ard</w> 4288
roman ce</w> 4287
m ous</w> 4286
wi e 4286
girl friend</w> 4286
h its</w> 4284
ju sti 4284
g on 4280
hor se</w> 4280
wee k 4280
v al</w> 4279
li kes</w> 4279
p en</w> 4278
shin es</w> 4277
be g</w> 4276
be ll</w> 4276
ã ¹</w> 4275
en ts</w> 4271
halle lu 4271
m are</w> 4269
a k</w> 4267
watch ed</w> 4267
satur day</w> 4263
cra sh</w> 4258
oh- oh- 4256
see med</w> 4254
cali for 4254
promi sed</w> 4253
smo king</w> 4252
den ly</w> 4249
answ ers</w> 4249
u u 4248
sh ore</w> 4247
cru el</w> 4247
wor l 4243
dru m</w> 4243
al a</w> 4241
sud denly</w> 4241
don de</w> 4240
l ust</w> 4239
pa ge</w> 4235
ki ller</w> 4235
tri ck</w> 4235
pu mp</w> 4234
gre y</w> 4233
o k 4232
sh e 4232
sh y</w> 4232
ol vi 4231
chan ges</w> 4225
o . 4224
le ss 4222
sin s</w> 4216
cra w 4216
dis gu 4212
fanta sy</w> 4212
d ding</w> 4211
dru g</w> 4211
dra ma</w> 4209
o le</w> 4207
no che</w> 4205
tra pped</w> 4205
co st</w> 4202
di a</w> 4201
ha b</w> 4200
e ty</w> 4197
er te</w> 4196
af ter 4196
un less</w> 4195
ev a</w> 4192
possi ble</w> 4191
shir t</w> 4191
mo ved</w> 4183
plan e</w> 4182
c loud</w> 4176
te x 4175
colo rs</w> 4175
ne l</w> 4173
be gun</w> 4172
ser ve</w> 4172
ll ars</w> 4171
x ed</w> 4169
star ting</w> 4167
di e 4162
smi ling</w> 4162
con tin 4160
lea vin</w> 4156
er ing</w> 4153
gra ss</w> 4152
blo wing</w> 4151
cra wl</w> 4149
every time</w> 4148
ou s 4147
bea st</w> 4147
groo ve</w> 4146
g ged</w> 4144
el ds</w> 4142
pro of</w> 4139
stor ies</w> 4137
ho li 4136
ã ª</w> 4129
ha un 4129
e un</w> 4128
soldi er</w> 4127
situ ation</w> 4126
daugh ter</w> 4125
en ter 4123
ra w</w> 4122
gi ft</w> 4121
c ting</w> 4119
u h- 4110
na tu 4109
d ã© 4106
cr yin</w> 4103
e c 4096
rea ching</w> 4095
bea ch</w> 4095
p sy 4094
ac tion</w> 4094
de al 4090
gre w</w> 4087
comfor t</w> 4086
v it 4081
p ee 4081
a do</w> 4078
pr a</w> 4075
va in</w> 4072
emb race</w> 4072
o g</w> 4067
g low</w> 4062
fa ding</w> 4062
ad mit</w> 4062
o d 4059
bi ll</w> 4057
j am</w> 4056
si des</w> 4056
tz t</w> 4055
n en</w> 4053
bu ry</w> 4052
moon light</w> 4050
mi x</w> 4049
dra g</w> 4048
e ther</w> 4047
f lies</w> 4046
fa ult</w> 4046
be gan</w> 4045
ck - 4044
ve ins</w> 4044
hallelu jah</w> 4044
sur r 4043
nu h</w> 4037
dan ger 4036
pan ts</w> 4035
to e</w> 4032
sto le</w> 4027
ev i 4026
hi er</w> 4024
le m</w> 4023
å  4022
hi m 4017
califor nia</w> 4015
neigh bor 4014
w earing</w> 4013
ti de</w> 4013
myster y</w> 4013
po ppin</w> 4011
da i 4009
dri f 4009
t it 4008
li st</w> 4008
wor e</w> 4006
d it 4005
z o</w> 4005
c ally</w> 3999
bull shit</w> 3998
sta yed</w> 3997
pi mp</w> 3995
wor kin</w> 3993
q u</w> 3992
squ ee 3992
swit ch</w> 3992
p ound</w> 3991
ma te</w> 3990
thri ll</w> 3987
de sp 3983
str ang 3982
cri b</w> 3980
i hr</w> 3976
fr an 3976
de p 3975
hust le</w> 3971
si ch</w> 3970
dro ps</w> 3969
aa aa 3969
ca ke</w> 3968
wra pped</w> 3965
boo ty</w> 3963
me hr</w> 3961
su ffer 3960
comple te</w> 3957
su is</w> 3953
you th</w> 3945
se in</w> 3944
scar s</w> 3944
r it 3942
tou ched</w> 3937
su ck 3935
per son 3935
co p</w> 3934
sin gin</w> 3933
s mar 3932
j in 3931
se as</w> 3931
beg ins</w> 3929
co w 3922
sa vi 3922
hea d 3921
mb ers</w> 3920
under ground</w> 3918
be ef</w> 3916
hear ta 3913
li ber 3905
grea test</w> 3903
bul let</w> 3900
motherfuck ers</w> 3899
gro ws</w> 3897
i mmer</w> 3896
ro of</w> 3896
mother fuckin</w> 3894
relea se</w> 3893
sp on 3892
fa il</w> 3889
the e</w> 3884
r ou 3882
g ni 3882
dest ru 3882
m ea 3880
deser t</w> 3878
hea ded</w> 3877
wh eels</w> 3876
jo ke</w> 3874
z zy</w> 3873
moun tains</w> 3873
tt i</w> 3870
ja il</w> 3870
per son</w> 3865
í  3864
hol din</w> 3861
du de</w> 3858
su ici 3857
chea p</w> 3855
tel ls</w> 3850
go ds</w> 3848
pre ten 3848
op ened</w> 3846
cli ck</w> 3846
e so</w> 3830
sp lit</w> 3830
ca da</w> 3828
thin ks</w> 3828
s lo 3820
sh u 3820
bi st</w> 3820
ga te</w> 3819
o ' 3818
inno cent</w> 3817
see k</w> 3816
ge or 3814
pi sto 3813
i de 3812
nor th</w> 3812
e e</w> 3810
â  3808
cur se</w> 3808
p y</w> 3807
or der</w> 3807
life time</w> 3807
n on 3804
on y</w> 3803
se es</w> 3800
ma i 3800
ra ppers</w> 3800
hol la</w> 3798
natu ral</w> 3794
ì  3788
su e 3788
mor nin</w> 3788
blo ws</w> 3787
twi sted</w> 3787
po in 3786
f light</w> 3785
ex ac 3784
imag in 3784
on ed</w> 3783
fi elds</w> 3783
sho wed</w> 3783
h all</w> 3778
win dows</w> 3778
wh ether</w> 3777
cir cle</w> 3775
s at</w> 3772
k on 3769
si ze</w> 3769
comp any</w> 3768
le i 3767
pa s 3766
en es</w> 3765
swal low</w> 3763
b ble</w> 3760
mo od</w> 3760
thro at</w> 3757
bi es</w> 3756
tan to</w> 3756
ro ses</w> 3755
su it</w> 3755
na sty</w> 3754
rain bow</w> 3754
d is</w> 3753
win ds</w> 3749
dra w</w> 3747
bott les</w> 3744
sa m</w> 3743
o p</w> 3741
in en</w> 3741
do llars</w> 3738
en tly</w> 3736
fe li 3732
bar ely</w> 3732
au ch</w> 3731
eter nal</w> 3730
sh it 3729
c - 3726
p se</w> 3725
dan cin</w> 3723
b bed</w> 3722
bu ried</w> 3721
melo dy</w> 3719
de u 3716
st al 3715
a wa 3714
f old</w> 3711
noti ce</w> 3701
beg ging</w> 3700
bar s</w> 3699
poi son</w> 3696
fig ur 3695
pi e</w> 3694
sla ve</w> 3693
cig are 3693
bloo dy</w> 3691
danger ous</w> 3690
we i 3689
kit chen</w> 3688
tion al</w> 3687
exac tly</w> 3686
da l</w> 3685
d nt</w> 3681
sta tion</w> 3679
ci o</w> 3679
han gin</w> 3677
fri day</w> 3675
wal ks</w> 3674
or t</w> 3673
ã º 3670
pro du 3670
sin k</w> 3670
comp li 3670
re lig 3668
who se</w> 3666
crea m</w> 3666
sw ea 3665
r ent</w> 3664
f on 3664
it ies</w> 3663
for d</w> 3661
a shes</w> 3659
gra y</w> 3659
en ch</w> 3656
con versa 3655
ug ly</w> 3655
fol lo 3652
ti p</w> 3647
co ke</w> 3647
pl en 3644
boo ts</w> 3643
ki e</w> 3642
lo ts</w> 3641
thi ck</w> 3636
si ble</w> 3632
ga in</w> 3631
itu de</w> 3630
di sea 3629
lan e</w> 3629
satis fied</w> 3628
john ny</w> 3627
al though</w> 3626
gen te</w> 3626
ro me</w> 3624
der ed</w> 3623
qu er 3622
b in 3621
p tion</w> 3618
ar ti 3616
bra ve</w> 3614
pr en 3611
than ks</w> 3610
ar i 3609
he al 3607
si de 3603
coraz ã³n</w> 3603
f a</w> 3600
reco gni 3599
strug gle</w> 3597
gar den</w> 3596
na mes</w> 3595
r on 3593
boo gie</w> 3593
ll o</w> 3592
homi es</w> 3591
st ones</w> 3590
b re</w> 3589
st un 3588
im ma</w> 3583
man i 3581
minu tes</w> 3581
a h- 3578
f ed</w> 3578
sha king</w> 3576
sil ly</w> 3574
sep ar 3572
sho p</w> 3568
wa sting</w> 3564
ma i</w> 3564
g or 3561
se ttle</w> 3560
ta g</w> 3560
ba tt 3559
t ig 3558
tra p</w> 3556
wan ting</w> 3554
w ns</w> 3549
destro y</w> 3549
disgu ise</w> 3549
ê ° 3544
u al</w> 3543
com m 3538
ff in</w> 3538
ti ene</w> 3534
tal e</w> 3529
brin ging</w> 3529
y y 3528
gr in 3528
pra ying</w> 3527
con su 3526
bir th</w> 3524
flo ws</w> 3522
ho pe 3521
gran d 3519
an ger</w> 3516
foo t 3516
fla sh</w> 3515
ba y</w> 3514
mi le</w> 3514
ne s 3511
tri ppin</w> 3510
m n</w> 3503
fro zen</w> 3503
sacri fice</w> 3503
lon e 3500
no - 3499
to es</w> 3498
y ers</w> 3494
na - 3494
thu gs</w> 3494
elec tri 3493
jour ney</w> 3492
5 0</w> 3488
fi re 3488
ci ã³n</w> 3488
de e</w> 3487
spar k</w> 3486
ki llin</w> 3483
sea son</w> 3483
su rely</w> 3482
re min 3481
le ben</w> 3481
cha ir</w> 3481
expe ct</w> 3480
en tre</w> 3479
mer ry</w> 3479
in er</w> 3476
tra cks</w> 3476
do min 3473
pa pa</w> 3472
se o</w> 3464
n et</w> 3462
ffe e</w> 3462
pe t 3461
ta pe</w> 3460
ch in 3459
per i 3458
ë § 3457
imp re 3457
sy m 3453
th or 3452
di vine</w> 3451
ur s</w> 3447
wha ts</w> 3447
cont igo</w> 3447
er t</w> 3446
so ci 3446
pu l 3446
instru mental</w> 3446
for ward</w> 3444
ama zing</w> 3443
week end</w> 3442
gri p</w> 3438
fai th 3436
mb re</w> 3434
co ffee</w> 3433
o ch</w> 3432
fa shi 3432
f loo 3431
wi s 3431
ã± o</w> 3431
va te</w> 3429
ther n</w> 3429
hol ds</w> 3428
demon s</w> 3428
sn ea 3427
mi ster</w> 3426
to m</w> 3425
mi cro 3425
mb a</w> 3424
r r 3421
l en 3419
ho o</w> 3419
at or</w> 3419
st ops</w> 3417
du e</w> 3417
sl and</w> 3415
mira cle</w> 3415
ctor y</w> 3413
stri ke</w> 3411
mer a</w> 3408
exc use</w> 3408
ta tt 3407
ke st</w> 3404
e i</w> 3402
so l</w> 3401
sta l</w> 3400
re ve 3399
rema ins</w> 3397
s chi 3396
of ten</w> 3395
d un 3394
pu m</w> 3393
trou bles</w> 3392
be came</w> 3389
f in</w> 3387
te e</w> 3386
ene mies</w> 3386
l . 3384
qu and</w> 3383
p i</w> 3381
an ima 3381
ran ge</w> 3381
pu lling</w> 3380
ar te</w> 3379
fur ther</w> 3377
plen ty</w> 3376
ma dness</w> 3373
tru ly</w> 3373
ma tters</w> 3371
coun ting</w> 3371
k ings</w> 3370
etern ity</w> 3369
wo w</w> 3367
w - 3366
c lear 3363
confu sed</w> 3363
mo ments</w> 3362
pp y</w> 3362
watch in</w> 3361
t su 3360
hi lls</w> 3359
an ti 3356
ì § 3353
si r</w> 3351
pi er 3351
car ds</w> 3351
flo wer</w> 3351
ca min 3348
den i 3346
do g 3344
tra vel</w> 3344
am our</w> 3343
ma ch</w> 3340
co ck</w> 3340
guil ty</w> 3340
dire ction</w> 3338
pa r</w> 3337
cru sh</w> 3337
fu e</w> 3333
swi m</w> 3332
n ous</w> 3331
for th</w> 3331
drea med</w> 3331
clo wn</w> 3330
king dom</w> 3330
i re</w> 3327
a bu 3327
si ento</w> 3327
bu mp</w> 3322
re g 3321
pi l 3321
ma tic</w> 3320
le dge</w> 3316
dro pped</w> 3314
ho pes</w> 3312
je wel 3312
p h</w> 3307
ba gs</w> 3305
mar ried</w> 3305
a un 3302
me tal</w> 3300
al le</w> 3299
ra r</w> 3299
bulle ts</w> 3299
a k 3298
da w 3296
p ers</w> 3294
wor ks</w> 3293
wit ness</w> 3292
na die</w> 3291
holl y 3290
mb o</w> 3287
qui en</w> 3287
sp ee 3286
ac tin</w> 3286
qui ck 3285
bal ls</w> 3285
be in</w> 3284
i sland</w> 3283
a ir 3283
da me</w> 3283
am i</w> 3283
je tzt</w> 3282
o we</w> 3278
o ff 3278
wi lling</w> 3278
smi les</w> 3275
roa ds</w> 3275
de fin 3273
tch ing</w> 3273
ro cking</w> 3272
lev el</w> 3272
hol low</w> 3271
__ __ 3270
e o</w> 3269
fa ded</w> 3267
under stood</w> 3265
v ity</w> 3264
li ty</w> 3262
drow ning</w> 3261
victi m</w> 3261
su mm 3260
viol ence</w> 3260
es to</w> 3259
ga tes</w> 3258
blo win</w> 3258
con fi 3251
chan ces</w> 3247
sw in 3244
un known</w> 3242
gr ou 3242
da m</w> 3241
plan et</w> 3241
su ffer</w> 3239
igno re</w> 3236
mon y</w> 3234
den tro</w> 3234
br an 3233
s is</w> 3231
ju d 3228
whi sk 3227
her o 3227
al e 3222
pla yer</w> 3222
é </w> 3221
di c 3220
ha r</w> 3218
en in</w> 3217
ba n</w> 3216
ck le</w> 3216
ne ce 3212
ga z 3211
su e</w> 3206
tch ed</w> 3202
to a 3201
g gin</w> 3199
pu bli 3198
or din 3197
son o</w> 3197
i . 3195
ha vin</w> 3193
do o 3190
con tra 3189
qu ando</w> 3188
pla ys</w> 3187
a v 3185
holly wood</w> 3185
cr y 3184
fin ish</w> 3183
bir th 3182
fa mous</w> 3181
chi cks</w> 3179
believ ing</w> 3179
spe ci 3178
les son</w> 3178
je ct</w> 3177
ta in 3176
dro ve</w> 3176
p less</w> 3174
p han 3173
mu l 3173
m me</w> 3172
stan din</w> 3167
spo ken</w> 3167
can e</w> 3164
disea se</w> 3162
sc or 3161
re st 3160
bu tter 3159
co m</w> 3159
sch on</w> 3159
e sp 3157
com mon</w> 3157
a a</w> 3151
da ma 3151
drin kin</w> 3151
i shed</w> 3150
tra sh</w> 3149
e sper 3148
no on</w> 3148
ma tch</w> 3148
th ou</w> 3147
revo lution</w> 3145
ter min 3143
po ckets</w> 3142
c ãª</w> 3141
ha i</w> 3141
jeal ous</w> 3140
no te</w> 3139
h et</w> 3138
ben z</w> 3135
rela x</w> 3132
1 9 3130
writ ing</w> 3128
s ã©</w> 3126
you n 3125
co at</w> 3125
ch ose</w> 3124
sun ny</w> 3124
pla ya</w> 3123
uni verse</w> 3123
b are</w> 3122
bo ther</w> 3122
ad ore</w> 3122
e sta 3121
si p</w> 3121
hon est</w> 3118
poli ti 3115
wi pe</w> 3114
car d</w> 3114
pu shing</w> 3113
bur nin</w> 3113
a ce</w> 3110
ur a</w> 3106
ex cept</w> 3105
g in 3104
ho w 3104
tt on</w> 3100
no r</w> 3098
pri son</w> 3098
hh hh 3098
c ell</w> 3096
en ded</w> 3095
af fe 3094
gre ed</w> 3091
ja ck 3089
men to</w> 3088
tr unk</w> 3087
a hh</w> 3086
fa n</w> 3086
o h 3085
tur ed</w> 3082
cli mb 3082
guar an 3080
sta ck</w> 3078
hun g</w> 3078
f r</w> 3077
si e 3077
ra pper</w> 3076
scre en</w> 3073
j et</w> 3071
le e</w> 3070
con cer 3067
in spi 3066
pre si 3066
sta irs</w> 3065
a im</w> 3064
pa ir</w> 3064
light ning</w> 3064
bi lls</w> 3063
val ley</w> 3063
en joy</w> 3062
hor iz 3062
ble w</w> 3061
ener gy</w> 3060
fin ding</w> 3059
.. ...</w> 3058
dam ned</w> 3058
jun gle</w> 3058
la- la- 3058
night mare</w> 3057
war ning</w> 3055
con si 3053
pa n</w> 3052
pu tting</w> 3052
x 2</w> 3048
sin king</w> 3048
al low</w> 3047
a ca 3046
chi cken</w> 3045
vo cãª</w> 3043
happ ening</w> 3043
thir d</w> 3043
smo oth</w> 3042
c ence</w> 3040
wi rd</w> 3040
har dly</w> 3040
e sa</w> 3037
ru bb 3037
mu j 3036
o tra</w> 3035
ar a</w> 3035
vo id</w> 3034
fi st</w> 3033
he sit 3033
liqu or</w> 3033
b led</w> 3032
suici de</w> 3030
lone some</w> 3030
in di 3029
re ci 3029
an o 3024
sa ke</w> 3024
e yed</w> 3021
se ts</w> 3021
wie der</w> 3021
si ve</w> 3016
me ine</w> 3016
tele phone</w> 3015
wi re</w> 3014
hur ting</w> 3014
u su 3010
al ma</w> 3009
simp ly</w> 3009
soldi ers</w> 3006
blo wn</w> 3005
addi cted</w> 3005
el a</w> 3004
dar kest</w> 3004
k - 3002
mi a</w> 3002
cti ve</w> 3000
whisk ey</w> 2997
for tune</w> 2996
t our</w> 2995
cu en 2995
cro ssed</w> 2992
ba - 2991
2 0</w> 2989
ex tra</w> 2989
j am 2987
l ers</w> 2986
or a</w> 2986
sha pe</w> 2986
a side</w> 2985
sa u 2985
any time</w> 2985
se ven 2984
kan n</w> 2984
to o 2983
e d 2981
a ven 2981
hi dden</w> 2980
celebra te</w> 2980
ve st</w> 2978
al so</w> 2976
st on</w> 2973
de in</w> 2969
par ed</w> 2969
sp in 2967
pin k</w> 2967
4 0</w> 2966
hun ger</w> 2965
shoo ting</w> 2965
vivi r</w> 2965
ã  2963
fã¼ r</w> 2963
ro pe</w> 2962
to wards</w> 2960
k er 2957
be lon 2956
o w</w> 2955
wor ried</w> 2955
m igo</w> 2954
se rious</w> 2953
me u</w> 2952
a ah</w> 2951
ti cket</w> 2950
ru m</w> 2948
squee ze</w> 2948
ko mm 2946
believ ed</w> 2946
ha mmer</w> 2945
k al 2939
wa shed</w> 2938
nu mb</w> 2938
i to</w> 2936
qu a 2935
re spon 2934
ki ssing</w> 2934
anima l</w> 2934
f our 2931
ba d 2931
po sse 2931
k t</w> 2930
pur ple</w> 2930
ã§ a</w> 2929
heart beat</w> 2929
wri st</w> 2928
e o 2927
p rea 2927
c lar 2925
t z</w> 2925
strea m</w> 2925
refu se</w> 2925
ter ri 2922
lon el 2921
good night</w> 2920
fl at</w> 2920
oun ding</w> 2919
be tra 2918
hearta che</w> 2916
bi lly</w> 2915
kno w 2914
e f 2911
st ry</w> 2910
al ity</w> 2909
strang ers</w> 2909
mu y</w> 2905
inno cence</w> 2904
wre ck</w> 2904
an ci 2903
sa dness</w> 2903
ta il</w> 2902
con ta 2900
worl ds</w> 2900
m r</w> 2896
or ig 2895
ea ting</w> 2893
be dro 2893
thr one</w> 2893
wha tcha</w> 2892
so le 2891
ang ry</w> 2889
ã© s</w> 2889
la do</w> 2886
so a 2882
eu l</w> 2882
mon key</w> 2880
m or</w> 2879
mon ster</w> 2877
trig ger</w> 2877
brea kin</w> 2876
.... .... 2876
th ug 2875
ch ts</w> 2875
ev o</w> 2873
u hh</w> 2872
w rap</w> 2872
go ver 2869
stri p</w> 2865
cuer po</w> 2865
ca mbi 2863
pla stic</w> 2863
lo r 2861
di stant</w> 2859
loa ded</w> 2859
shel ter</w> 2855
lan ds</w> 2854
ar my</w> 2853
lo tta</w> 2853
resi st</w> 2853
la ying</w> 2851
am ong</w> 2851
ordin ary</w> 2851
lonel iness</w> 2850
screa ms</w> 2848
ca ine</w> 2847
po ol</w> 2847
der n</w> 2846
z o 2845
er y</w> 2844
v et</w> 2843
t one</w> 2843
aun que</w> 2842
d les</w> 2841
lea ds</w> 2841
ã ¥ 2840
pisto l</w> 2839
emo tion</w> 2835
e qu 2834
b or</w> 2834
sh a</w> 2834
co z</w> 2834
sa tan</w> 2834
recogni ze</w> 2834
ki mi</w> 2833
ho tel</w> 2832
tt es</w> 2832
che mi 2832
se ed</w> 2830
fra me</w> 2830
ë  2829
al ed</w> 2829
tra de</w> 2824
smar t</w> 2823
f are</w> 2822
fri end 2822
ther ed</w> 2822
bo p</w> 2821
gu ard</w> 2821
im my</w> 2821
ì  2818
la me</w> 2818
de ca 2818
da h</w> 2817
mi o</w> 2817
sha de</w> 2817
di lla 2816
sk in 2816
in du 2815
ph y 2815
h mm</w> 2814
p he 2813
de spa 2813
ous ly</w> 2811
ja r</w> 2809
li on</w> 2806
recor ds</w> 2805
foo lish</w> 2804
era se</w> 2804
en o</w> 2802
na med</w> 2802
har m</w> 2800
sh eets</w> 2799
th less</w> 2796
b ang 2795
ã ¢ 2795
se h</w> 2795
drin ks</w> 2795
spo ke</w> 2794
ci elo</w> 2793
ai re</w> 2793
ma mi</w> 2792
a tions</w> 2791
ye o 2790
ã ¥</w> 2786
st en</w> 2782
na ch</w> 2782
drea min</w> 2782
ide a</w> 2782
e str 2781
m ee 2781
sc ore</w> 2777
tra ge 2777
n an</w> 2776
sha med</w> 2775
ex ist</w> 2774
o hhh</w> 2773
flo ating</w> 2773
ba bies</w> 2772
di os</w> 2769
de sc 2767
glo ck</w> 2766
bab y 2765
st ur 2764
ca ge</w> 2764
cham pag 2764
di p</w> 2763
tri cks</w> 2761
fan cy</w> 2761
down town</w> 2761
cow boy</w> 2761
ga ther</w> 2760
suffer ing</w> 2760
br a</w> 2759
hu man 2759
a . 2756
ge u 2756
birth day</w> 2754
al al 2753
ba star 2752
a ve 2750
posit ion</w> 2750
se mp 2746
cri min 2746
can dle</w> 2746
cli p</w> 2746
sel f- 2745
lo ss</w> 2744
emo tions</w> 2743
ab an 2741
mar i 2741
du m</w> 2738
stra y</w> 2737
aqu ã­</w> 2735
re ven 2734
la ce</w> 2734
wo - 2734
go ts</w> 2733
qu ã©</w> 2733
par ti 2733
lon don</w> 2731
san s</w> 2731
prote ct</w> 2731
ch rome</w> 2729
wor ked</w> 2729
brigh ter</w> 2729
u se 2728
m u</w> 2726
z er</w> 2725
ha cer</w> 2725
2 0 2723
si ck 2721
est as</w> 2721
c lean 2720
n y 2719
sign ed</w> 2718
n u</w> 2714
sha des</w> 2713
ve ment</w> 2713
qui eres</w> 2712
pi lls</w> 2711
bl unt</w> 2711
care ful</w> 2711
b u</w> 2709
cou l 2708
cir cles</w> 2708
ne on</w> 2706
k et</w> 2705
igh s</w> 2703
tra ce</w> 2703
m ale</w> 2702
de j 2700
bra ins</w> 2700
na cht</w> 2698
r ar 2697
con migo</w> 2697
z in</w> 2696
tra s</w> 2695
al y 2694
de ine</w> 2694
j ones</w> 2693
1 00</w> 2692
re call</w> 2692
att itude</w> 2691
hi ps</w> 2689
pla te</w> 2687
tin y</w> 2687
y al</w> 2686
f ü 2686
ad vice</w> 2685
zz le</w> 2682
savi or</w> 2682
e en</w> 2681
k le</w> 2681
chee se</w> 2680
er ra</w> 2678
gi a</w> 2677
nu ts</w> 2677
pi cked</w> 2674
screa min</w> 2674
a da</w> 2670
p ig 2670
ro ws</w> 2670
ë  2668
ra te</w> 2668
y i 2666
pain ted</w> 2665
g ging</w> 2663
s sen</w> 2662
relig ion</w> 2661
bal lin</w> 2660
on a</w> 2657
ä  2656
easi ly</w> 2656
do me</w> 2655
mother fucking</w> 2653
wa king</w> 2652
po t</w> 2652
a more</w> 2651
re scu 2651
vi lle</w> 2651
lear ning</w> 2651
v ent</w> 2647
sel ling</w> 2647
fla g</w> 2645
thro wing</w> 2645
lun gs</w> 2645
champag ne</w> 2645
g st</w> 2644
ho les</w> 2644
th o 2643
me jor</w> 2643
conversa tion</w> 2643
e do</w> 2642
p y 2642
la w 2641
ra i</w> 2641
si ppin</w> 2641
e li 2639
drea m 2638
b is</w> 2637
re - 2637
sal vation</w> 2637
gener ation</w> 2637
ba l</w> 2635
di sp 2635
sa c 2632
d ale</w> 2631
app le</w> 2629
kee pin</w> 2628
boy friend</w> 2628
tex as</w> 2628
ri o</w> 2627
cu te</w> 2627
hy p 2627
be comes</w> 2626
ju ice</w> 2626
cho ke</w> 2626
im possible</w> 2626
se y</w> 2624
fo cus</w> 2624
heaven s</w> 2624
al bum</w> 2623
s word</w> 2622
o w 2621
y all</w> 2621
rin ging</w> 2621
squ ad</w> 2620
r at</w> 2619
ma sk</w> 2619
e star</w> 2618
wol f</w> 2617
bedro om</w> 2615
t ally</w> 2614
flo at</w> 2614
phy si 2614
sho wing</w> 2613
h m</w> 2612
mi ssi 2612
a shamed</w> 2611
mo vi 2611
hon est 2611
def en 2610
o jos</w> 2608
me lt</w> 2607
a gu 2606
boo ks</w> 2606
dri ft</w> 2605
al co 2604
ro lled</w> 2604
cu ts</w> 2601
j immy</w> 2600
to dos</w> 2599
oh- oh</w> 2599
t le 2598
prin ce</w> 2598
wis dom</w> 2597
g l 2596
sh ell</w> 2596
ma gaz 2596
him self</w> 2595
do - 2594
cour t</w> 2594
tu ally</w> 2592
fuck a</w> 2592
thro wn</w> 2590
cr iti 2589
lea ther</w> 2588
di m</w> 2587
p ity</w> 2584
er as</w> 2581
ig nor 2581
mi e</w> 2581
ri en</w> 2579
sta ying</w> 2579
d or</w> 2577
clu e</w> 2577
fal se</w> 2572
ma il</w> 2570
woo ds</w> 2569
pi re</w> 2568
ki lla</w> 2566
ge ht</w> 2561
ha e</w> 2559
bun ch</w> 2558
fu l 2557
bla de</w> 2555
shoul ders</w> 2554
ru b</w> 2553
t igh 2552
la zy</w> 2552
fif ty</w> 2552
destru ction</w> 2552
co lli 2551
fore ign</w> 2550
cree p</w> 2549
ã </w> 2546
pa thy</w> 2546
holi day</w> 2546
hear ing</w> 2544
din ner</w> 2544
ca dilla 2543
ã â 2543
sal e</w> 2542
w ounds</w> 2541
un done</w> 2541
confu sion</w> 2541
sof tly</w> 2541
wa ter 2539
fa it</w> 2539
bri ck</w> 2537
ã ²</w> 2536
la sting</w> 2536
lou der</w> 2536
free ze</w> 2536
faith ful</w> 2536
ba se 2533
t . 2532
anci ent</w> 2532
po co</w> 2531
str ings</w> 2525
att ra 2525
ac cept</w> 2523
shoul da</w> 2522
i ze</w> 2521
sta ys</w> 2521
g ur 2520
tch es</w> 2519
k ra 2518
si a</w> 2517
g at</w> 2512
cei ling</w> 2511
mon ths</w> 2508
p ale</w> 2507
cla us</w> 2502
sh ou 2501
w are</w> 2500
de di 2499
refle ction</w> 2499
fashi on</w> 2497
on e- 2496
tr ed</w> 2495
par ents</w> 2494
regre ts</w> 2494
bri cks</w> 2493
day light</w> 2493
pil low</w> 2493
o ffer</w> 2492
d ã­a</w> 2491
vi a</w> 2491
di sco</w> 2490
gu t</w> 2490
i led</w> 2488
rea ding</w> 2488
mar ch</w> 2488
flo wing</w> 2488
mon day</w> 2487
electri c</w> 2487
la ke</w> 2484
sha kin</w> 2484
quar ter</w> 2484
wa ters</w> 2482
pa cked</w> 2481
ma ck</w> 2480
fami liar</w> 2480
a de</w> 2478
pri vate</w> 2477
b . 2476
pa c</w> 2476
le tters</w> 2474
in fin 2473
str ing</w> 2470
li mit</w> 2469
bloo d 2469
p ha 2468
ma tion</w> 2468
e g 2467
pu shed</w> 2467
tea ring</w> 2467
wea ry</w> 2467
qu er</w> 2466
du ck</w> 2466
up side</w> 2466
craw ling</w> 2466
c tly</w> 2464
1 2</w> 2464
h l</w> 2462
mi en 2462
dri vin</w> 2462
s car</w> 2461
dr ank</w> 2461
de m 2458
j or 2457
ã  2457
t wel 2456
ha tred</w> 2456
en ter</w> 2455
kno cked</w> 2455
sa ving</w> 2454
g ree 2453
ma in 2452
ze it</w> 2452
ne w 2450
ki ckin</w> 2448
s ni 2447
ho l</w> 2447
pi en 2447
na e</w> 2446
shoo k</w> 2446
as ã­</w> 2445
a man 2443
crea te</w> 2442
sha ttered</w> 2441
sa bes</w> 2440
a fri 2439
chi llin</w> 2438
apo logi 2438
pa ce</w> 2437
hi p- 2437
toa st</w> 2437
su cker</w> 2436
in na</w> 2434
hea ding</w> 2434
frea ky</w> 2434
sha dy</w> 2433
squ are</w> 2432
wa h</w> 2430
hh hh</w> 2430
ag ree</w> 2430
cro o 2428
e cho</w> 2427
know ledge</w> 2427
re ce 2424
mi ke</w> 2424
vi sions</w> 2424
pou ring</w> 2424
y ah</w> 2422
dou b 2422
ã¤ n 2422
semp re</w> 2422
pu ttin</w> 2421
w u 2419
h eels</w> 2417
l yin</w> 2417
clo sing</w> 2417
in ner</w> 2415
sho ck</w> 2415
ner vous</w> 2415
despa ir</w> 2415
c lin 2414
g ger</w> 2414
a w</w> 2414
confe ss</w> 2414
da ss</w> 2413
pra cti 2412
gen tle</w> 2412
yea r 2410
in se 2409
lea ding</w> 2409
va r</w> 2409
for ty</w> 2408
sun light</w> 2408
sun set</w> 2408
ee ee 2407
v ai</w> 2405
wor n</w> 2404
po e 2404
justi ce</w> 2403
preten ding</w> 2402
orig in 2402
war ri 2401
bla ze</w> 2400
i- i- 2400
m eat</w> 2399
c ci</w> 2397
ir on</w> 2397
wea k 2397
l on</w> 2396
ì  2396
la ws</w> 2396
sk u 2395
do e</w> 2393
hear ted</w> 2393
micro phone</w> 2393
e y 2392
gu es</w> 2392
gover n 2392
a ts</w> 2390
rea ched</w> 2390
bor ed</w> 2390
z ero</w> 2389
mor tal</w> 2389
bu ddy</w> 2387
shi ps</w> 2387
r is</w> 2386
wh ore</w> 2385
ni chts</w> 2384
pati ence</w> 2384
der ing</w> 2383
exi st 2381
ä ±</w> 2379
tur nin</w> 2377
ob se 2377
f ans</w> 2376
we dding</w> 2376
o g 2375
sac red</w> 2374
con ce 2373
te m</w> 2373
te en 2371
ec sta 2370
plan ned</w> 2369
f ought</w> 2368
rain ing</w> 2364
b at</w> 2363
nu mbers</w> 2363
neighbor hood</w> 2363
mis sin</w> 2361
do t</w> 2360
sun rise</w> 2360
so u</w> 2359
fi lls</w> 2358
lan ce</w> 2358
aw are</w> 2357
in g 2356
sa int</w> 2356
pi ã¹</w> 2356
me xi 2355
tea r 2354
ke in</w> 2352
ha st</w> 2351
va mos</w> 2351
a x 2348
lon ging</w> 2347
il le 2346
shar ed</w> 2346
ca p</w> 2345
sou thern</w> 2341
sli m</w> 2340
sma ck</w> 2340
se as 2339
lla s</w> 2339
p are</w> 2338
cho sen</w> 2337
mo tha 2336
v ar 2335
lo ws</w> 2335
vi ctory</w> 2335
men tion</w> 2335
sna ke</w> 2333
big gest</w> 2332
kno cking</w> 2331
e sc 2329
z i</w> 2329
si sters</w> 2329
ro lls</w> 2327
ll en</w> 2327
ex peri 2325
ki cked</w> 2323
it ch</w> 2322
so lu 2322
a y 2321
st el 2320
fa vor</w> 2319
thr u</w> 2319
kno ckin</w> 2319
qu it 2317
te a</w> 2317
easi er</w> 2316
pal m</w> 2315
ch ev 2313
la ck</w> 2313
be e</w> 2313
sp ending</w> 2313
reme mb 2313
ly n</w> 2313
tran s 2313
re bel</w> 2311
blin ded</w> 2311
an i 2310
h r 2309
lo co</w> 2307
har mony</w> 2306
cap tain</w> 2306
ima ge</w> 2305
presen ce</w> 2305
j ur 2304
s so</w> 2302
b ly</w> 2302
do ve</w> 2300
ga y</w> 2300
l er 2294
er to</w> 2292
in ts</w> 2291
ni ck 2290
spea king</w> 2289
sla p</w> 2288
laugh ed</w> 2288
comple tely</w> 2288
sma sh</w> 2286
ro b</w> 2285
ha ce</w> 2285
in vi 2284
an to</w> 2284
on er</w> 2284
lie be</w> 2284
ev es</w> 2283
con o 2283
f oun 2281
scra tch</w> 2280
pue de</w> 2279
san ds</w> 2278
er en</w> 2276
ev ' 2276
jin gle</w> 2276
st as</w> 2275
oo - 2275
dama ge</w> 2275
v is</w> 2274
un o</w> 2274
con vin 2272
la n</w> 2270
ster n</w> 2268
ki cks</w> 2266
follo wing</w> 2266
z ar 2265
al go</w> 2265
ha tin</w> 2265
sli pping</w> 2264
er u</w> 2263
fa cts</w> 2262
mou r 2261
k ri 2260
bb in</w> 2260
w at</w> 2259
fin ished</w> 2258
i i</w> 2257
re present</w> 2256
na ils</w> 2256
reven ge</w> 2256
cra shing</w> 2254
sou r 2253
la u 2252
temp tation</w> 2252
li ked</w> 2251
b on</w> 2250
1 0 2250
ad d</w> 2249
pe st</w> 2247
k or 2246
crea ted</w> 2246
p our 2245
ha m</w> 2245
fai re</w> 2245
qu est</w> 2243
smi led</w> 2243
an a 2242
ti ck</w> 2241
ju mpin</w> 2241
e on</w> 2240
bro ok 2240
sch en</w> 2240
o- o- 2240
cigare tte</w> 2240
g ree</w> 2239
s . 2238
har d 2237
t ang 2236
t ary</w> 2236
ã ¢</w> 2236
sa ck</w> 2236
af ford</w> 2236
ju mped</w> 2236
b ou 2235
mi l</w> 2235
e igh 2234
j ig 2234
ea red</w> 2234
s ch</w> 2233
' cos</w> 2233
sh o</w> 2233
fa des</w> 2233
s m</w> 2232
con cre 2232
se l</w> 2230
hon or</w> 2230
pi ss</w> 2229
car ed</w> 2229
temp o</w> 2229
illu sion</w> 2229
con d 2228
supp ose</w> 2228
fel las</w> 2227
ã ¤</w> 2226
car ried</w> 2226
dai ly</w> 2225
rescu e</w> 2225
hip- hop</w> 2225
me l</w> 2224
cha os</w> 2224
belon gs</w> 2223
hur ri 2221
horiz on</w> 2218
b ent</w> 2216
ra tion</w> 2215
ci l</w> 2214
g lu 2213
tal ked</w> 2213
g le 2212
vi lla 2212
tri es</w> 2212
s igh</w> 2211
cry stal</w> 2211
l una</w> 2210
mu d</w> 2210
figur ed</w> 2210
' t</w> 2209
ma cht</w> 2208
el ev 2208
te ch 2206
to y</w> 2205
swi mming</w> 2205
bee p</w> 2205
in fe 2203
ba cks</w> 2203
pra yers</w> 2203
bri d 2203
s .</w> 2202
wa ck</w> 2201
st es</w> 2200
pa y 2200
n early</w> 2198
u es</w> 2196
wea pon</w> 2196
3 0</w> 2195
par e 2195
d der</w> 2194
p sy</w> 2194
ca sa</w> 2194
ã¨ re</w> 2193
the m 2191
rest less</w> 2190
wel t</w> 2188
soci ety</w> 2188
d yin</w> 2187
wa y 2186
d . 2184
pre pared</w> 2183
cadilla c</w> 2183
a qui</w> 2182
consci ence</w> 2180
co caine</w> 2179
ro am</w> 2178
lo gy</w> 2176
p ear 2175
ter ror</w> 2175
e ine</w> 2174
a ba 2174
vi deo</w> 2173
man o</w> 2171
cir cu 2171
pa ssi 2170
chee k</w> 2170
ena mor 2169
par is</w> 2168
concre te</w> 2168
ê ² 2166
mo ti 2166
î ± 2165
ha il</w> 2165
temp s</w> 2164
on al</w> 2163
floo d</w> 2163
re f 2161
ter i 2160
ë  2158
hero es</w> 2158
p it</w> 2157
br o</w> 2157
heaven ly</w> 2156
do l 2155
we il</w> 2155
drif ting</w> 2153
brook lyn</w> 2153
re l</w> 2152
pla ced</w> 2152
li p</w> 2151
b lon 2150
' cuz</w> 2150
ca mera</w> 2150
ta ge</w> 2150
mil k</w> 2150
k le 2149
co de</w> 2148
na i</w> 2147
dev o 2147
feli z</w> 2146
y al 2145
la h</w> 2145
ble i 2145
o be 2144
j en 2143
ì  2143
ra di 2143
deci sion</w> 2143
pp a</w> 2142
be l 2141
wee ks</w> 2140
less ly</w> 2140
twel ve</w> 2140
mo del</w> 2139
dea dly</w> 2139
- a</w> 2138
govern ment</w> 2138
bi ble</w> 2137
ri d</w> 2136
dan ced</w> 2136
ro ck 2135
no- one</w> 2135
hu sh</w> 2134
a o</w> 2132
si r 2131
sho e</w> 2131
re wind</w> 2130
t ent</w> 2129
for gi 2129
kne e</w> 2129
me k</w> 2127
crea tion</w> 2127
pur pose</w> 2127
de scri 2126
run away</w> 2125
r igh 2124
in tro 2124
de mon</w> 2124
re i 2122
tra ffi 2121
deci ded</w> 2121
be lly</w> 2120
si es</w> 2120
e scu 2119
al i</w> 2119
ha ting</w> 2119
gran ted</w> 2119
vi d</w> 2117
for est</w> 2117
hu g</w> 2116
nu estr 2116
se tting</w> 2114
swee test</w> 2114
w oul 2113
ki ll 2112
ab i 2112
t ous</w> 2111
wa its</w> 2110
vi ous</w> 2109
co sa</w> 2108
ba m</w> 2108
them selves</w> 2108
ste pped</w> 2107
z es</w> 2105
de pre 2105
ã¡ n 2105
s sa</w> 2104
lea der</w> 2104
gra m</w> 2104
tin ess</w> 2104
ï  2102
ri sk</w> 2102
li a</w> 2101
milli ons</w> 2101
seas ons</w> 2097
we g</w> 2096
lan gu 2096
quick ly</w> 2096
qu el 2095
vi be</w> 2095
m c 2094
jan e</w> 2094
j el 2093
publi c</w> 2092
ba se</w> 2091
pi mpin</w> 2091
f it 2089
de y</w> 2088
sk et</w> 2088
fir es</w> 2088
pho to 2088
explo de</w> 2087
ro le</w> 2086
mar ry</w> 2086
bu stin</w> 2085
a di 2084
par ts</w> 2084
trea sure</w> 2084
after noon</w> 2084
d ings</w> 2083
char ge</w> 2083
ti enes</w> 2081
se qu 2077
hit tin</w> 2077
e tte</w> 2076
re cuer 2075
ri vers</w> 2075
j n</w> 2074
e ye 2073
a c</w> 2073
e ffe 2072
mon th</w> 2071
as kin</w> 2071
har dest</w> 2070
dri ves</w> 2070
g it 2069
ma ke 2069
ma ker</w> 2069
wan der</w> 2069
v ac 2067
pun ch</w> 2067
plu g</w> 2067
desper ate</w> 2067
hyp noti 2067
se m</w> 2066
ra cing</w> 2065
for ced</w> 2063
sna p</w> 2062
dra wn</w> 2060
of fi 2060
kar a</w> 2060
cu m</w> 2059
m ã­</w> 2057
ma jor</w> 2055
bu tt</w> 2054
sp an 2053
tou ching</w> 2053
ro t</w> 2052
w i</w> 2051
pi ll</w> 2050
n as</w> 2049
le g</w> 2049
g ling</w> 2047
a ug 2047
emp tiness</w> 2047
ba th 2046
tra il</w> 2046
ave c</w> 2046
imagin ation</w> 2045
u sing</w> 2044
a z</w> 2044
for t</w> 2044
impor tant</w> 2044
s ore</w> 2043
com plain</w> 2043
g les</w> 2042
pan ic</w> 2042
be tta</w> 2041
satis fy</w> 2041
ten ed</w> 2040
fuck er</w> 2039
in ch</w> 2038
re ign</w> 2038
re v 2037
to ys</w> 2037
vi el</w> 2037
a while</w> 2036
pi es</w> 2036
sk y 2036
crimin al</w> 2036
s z 2035
ri a</w> 2035
dru ms</w> 2035
di ve</w> 2034
re gar 2033
ph y</w> 2033
it es</w> 2032
app ear</w> 2030
ti ps</w> 2028
bu bble</w> 2028
sp ray</w> 2027
gu cci</w> 2026
cho co 2026
we al 2025
por t</w> 2025
twen ty- 2025
sen ce</w> 2024
up town</w> 2024
f en</w> 2023
lu i</w> 2022
mo mmy</w> 2021
swee ter</w> 2021
s ser</w> 2020
mb led</w> 2020
ma c</w> 2019
sor t</w> 2018
min i 2017
d less</w> 2016
p et</w> 2015
it self</w> 2015
bu n</w> 2015
wor ship</w> 2015
ban ds</w> 2014
st eri 2011
c ine</w> 2009
w eep</w> 2009
bo b</w> 2009
sol ve</w> 2009
p eep</w> 2007
sh er</w> 2007
fr igh 2006
un cle</w> 2005
stan tly</w> 2005
see ds</w> 2003
nor mal</w> 2003
des de</w> 2003
prea cher</w> 2003
secon ds</w> 2002
thir ty</w> 2002
co ok</w> 2001
zi e</w> 2001
o' clock</w> 2001
to tal</w> 2000
ver dad</w> 2000
gra de</w> 1999
ref rain</w> 1998
ba s</w> 1997
- a- 1995
â ¿ 1995
re ck 1995
pla tin 1994
do ll</w> 1993
ven ess</w> 1993
app roa 1993
man n</w> 1991
fai led</w> 1991
n ever 1990
as i</w> 1990
deni ed</w> 1989
sto mach</w> 1988
j ours</w> 1987
w ig 1986
we ir 1986
lo sin</w> 1985
mi xed</w> 1985
hope less</w> 1984
croo ked</w> 1984
be hold</w> 1983
ne o 1983
exist ence</w> 1983
e le</w> 1981
m end</w> 1981
chi e</w> 1981
cho p</w> 1981
y an 1979
do om</w> 1979
mar ching</w> 1979
ã  1979
ma p</w> 1978
traffi c</w> 1978
se rs</w> 1976
gu ts</w> 1976
in for 1974
do or 1974
hurri cane</w> 1974
u ma</w> 1972
lu z</w> 1972
k ur 1971
t win 1971
sa i</w> 1971
vo ir</w> 1970
cou rage</w> 1970
z um</w> 1969
cor n</w> 1968
ner ve</w> 1968
k el 1967
re vi 1967
qu' on</w> 1967
origin al</w> 1967
ha ha</w> 1966
lu lla 1966
ecsta sy</w> 1966
be ware</w> 1965
tch in</w> 1964
pa ges</w> 1963
wi r 1961
de - 1961
war s</w> 1960
fle w</w> 1960
po l 1959
ci on</w> 1959
whisp ers</w> 1959
h es</w> 1958
sp li 1957
some time</w> 1957
ne u 1956
we l</w> 1956
gen tle 1955
mir a</w> 1955
reali zed</w> 1954
separ ate</w> 1954
i ces</w> 1953
k y 1953
c it 1952
wi ll 1952
ste ppin</w> 1952
fu me</w> 1951
sp ine</w> 1951
ab er</w> 1951
ex tra 1951
ten der 1951
ta me</w> 1949
ju mping</w> 1949
sil en 1949
re ss</w> 1948
go - 1948
co me 1948
kno win</w> 1948
pu ff</w> 1947
sa fe 1946
def eat</w> 1946
e cho 1945
viol ent</w> 1945
i zed</w> 1942
re d 1942
lan d 1942
k nee 1940
b id</w> 1940
co lla 1940
ye o</w> 1940
u - 1939
mi ll 1939
tr es</w> 1939
sc ent</w> 1939
grea ter</w> 1939
stra pped</w> 1938
de ja</w> 1937
so ber</w> 1936
sho wer</w> 1936
do lor</w> 1935
chi ps</w> 1933
milli on 1933
se u 1932
ã© n</w> 1932
sa ber</w> 1931
au tu 1931
s é 1930
sli ck</w> 1930
y ang</w> 1929
z oo 1929
hor ses</w> 1929
s p</w> 1928
g n 1928
f en 1928
tt ed</w> 1928
de ck</w> 1928
fin ger 1928
fol lowed</w> 1928
g li</w> 1927
tea se</w> 1927
summ er 1927
gi bt</w> 1926
bli ss</w> 1926
surpri sed</w> 1925
thro win</w> 1924
se gu 1923
in v 1923
in ven 1923
sur es</w> 1923
so lution</w> 1922
pi el</w> 1922
gr in</w> 1921
cla i 1921
bb ing</w> 1921
sh eep</w> 1920
dr o</w> 1920
movi es</w> 1920
f ence</w> 1919
an te</w> 1919
su ff 1919
nin e 1918
z ar</w> 1916
ho pin</w> 1916
l ã</w> 1915
w ound</w> 1915
a ver 1915
wh oo 1913
il la</w> 1913
sp are</w> 1911
po le</w> 1911
cher ry</w> 1910
b st</w> 1908
muj er</w> 1908
platin um</w> 1908
ve ux</w> 1907
nee dle</w> 1907
ri ot</w> 1906
f ou 1905
ra ppin</w> 1905
a ges</w> 1904
hoo ked</w> 1904
intro du 1904
mi st</w> 1903
an che</w> 1902
char m</w> 1902
weak ness</w> 1900
ra p 1899
trage dy</w> 1899
z - 1898
sch e</w> 1898
ne m</w> 1897
ho tter</w> 1894
pre pare</w> 1892
her self</w> 1892
me ssed</w> 1891
ã  1890
r ights</w> 1889
fle x</w> 1889
oun ce</w> 1888
ad or 1888
s its</w> 1887
sa be</w> 1887
clear ly</w> 1887
aban don 1887
a h 1886
mu cho</w> 1886
ca s</w> 1885
under standing</w> 1885
pati ent</w> 1884
surr ounded</w> 1884
tal es</w> 1883
righ te 1883
mi x 1882
ever lasting</w> 1882
ru in</w> 1882
po st</w> 1882
per di 1882
cor re 1881
k k 1879
vi vo</w> 1879
bi r</w> 1879
tea cher</w> 1878
cre dit</w> 1878
para de</w> 1878
a va 1877
at es</w> 1877
i ll 1875
shar p</w> 1874
langu age</w> 1873
la mb</w> 1872
ki cking</w> 1870
dri p</w> 1870
gi m 1869
com mit 1869
est ã¡</w> 1869
cra cks</w> 1868
gho sts</w> 1868
vi o 1867
tal ks</w> 1867
photo gra 1867
cen tra 1865
deli ver</w> 1864
mb lin</w> 1863
ar re 1862
ru de</w> 1862
cru ci 1862
back wards</w> 1862
forgi veness</w> 1862
c ea 1861
- bye</w> 1861
fron tin</w> 1861
to da</w> 1860
ck t</w> 1860
hel pless</w> 1860
m all</w> 1859
ha ze</w> 1859
sli ppin</w> 1859
oo h- 1858
sho t 1858
ja mes</w> 1857
ser a</w> 1857
we h</w> 1856
bur nt</w> 1856
fun er 1856
mm in</w> 1854
spir its</w> 1854
rubb er</w> 1853
man kind</w> 1852
ne i 1851
ã¤ r</w> 1851
cen ter</w> 1851
hy pe</w> 1850
k r 1849
lo ser</w> 1849
win ning</w> 1849
eu x</w> 1849
we e</w> 1848
sen ding</w> 1846
sen ses</w> 1846
re lie 1845
mo dern</w> 1845
pr o</w> 1845
ber ry</w> 1845
mi cha 1844
wit ch</w> 1843
fl yin</w> 1842
ì ´</w> 1842
sp la 1841
stru ck</w> 1841
ci de</w> 1840
slee pin</w> 1840
choco late</w> 1840
ki d 1839
he aling</w> 1839
= = 1838
me s 1838
na e 1838
ai me</w> 1838
sta cks</w> 1837
dri ver</w> 1837
jewel s</w> 1836
dr a</w> 1835
col der</w> 1835
presi dent</w> 1835
in o</w> 1834
e mer 1833
gu sta</w> 1833
p el 1832
de cei 1832
vol ver</w> 1832
ti re</w> 1831
spin nin</w> 1831
î ±</w> 1830
bo l 1830
qu es</w> 1830
co vers</w> 1829
vu l 1828
ar ds</w> 1827
pro vi 1827
o m 1826
soli d</w> 1826
wa ist</w> 1825
th rea 1824
tor s</w> 1824
î µ 1823
sa is</w> 1822
bo mbs</w> 1822
jo int</w> 1822
cou ch</w> 1821
com pla 1820
ni et</w> 1820
pri son 1820
con te 1819
r i</w> 1818
belie f</w> 1818
gan z</w> 1818
ri pped</w> 1817
ce p 1817
sear chin</w> 1817
wor ries</w> 1816
sle pt</w> 1816
bru i 1815
le ans</w> 1814
ta bles</w> 1813
ki lls</w> 1812
whi stle</w> 1811
gri ll</w> 1811
you ll</w> 1810
ha unt</w> 1810
pu es</w> 1810
pu ts</w> 1810
ch al 1809
autu mn</w> 1809
nu t</w> 1808
af fair</w> 1807
rain y</w> 1807
o der</w> 1806
se tt 1806
ra ins</w> 1806
chri sti 1806
t ore</w> 1805
re p</w> 1805
ci pa 1805
sy n 1805
fü r</w> 1805
in em</w> 1804
di re</w> 1804
sti cks</w> 1804
sto len</w> 1804
po i</w> 1803
br on 1803
fr ench</w> 1803
auto matic</w> 1803
vi sit</w> 1802
suc cess</w> 1802
sen sa 1801
ve - 1801
s wore</w> 1800
j our</w> 1800
fif th</w> 1800
v ita</w> 1799
î ¼ 1799
gri ef</w> 1799
god damn</w> 1799
a ve</w> 1798
shin in</w> 1798
sci ence</w> 1797
pi pe</w> 1796
te ful</w> 1796
sel fish</w> 1794
s ite</w> 1793
sel lin</w> 1793
gen tly</w> 1791
micha el</w> 1791
en de</w> 1790
la p</w> 1789
blin k</w> 1788
ch as 1787
con vi 1786
sur face</w> 1786
roo ts</w> 1786
i ons</w> 1785
ha bit 1784
eu r</w> 1784
youn ger</w> 1784
g ig 1783
whi sper 1783
as su 1783
blo cks</w> 1783
ch - 1781
gi f 1781
sla m</w> 1781
bon d</w> 1781
ki ssin</w> 1777
lar ge</w> 1777
senti r</w> 1777
cham pi 1776
mi li 1775
mi ll</w> 1774
bo bby</w> 1772
in - 1771
ko mm</w> 1771
ver ing</w> 1770
cre di 1770
ne ga 1769
as sa 1769
six teen</w> 1769
la ted</w> 1768
bi z</w> 1768
sal t</w> 1768
p li 1767
shel f</w> 1767
cla ssi 1766
e du 1764
wi shes</w> 1763
in vit 1762
la yin</w> 1762
at lan 1762
t less</w> 1761
al la</w> 1760
po pping</w> 1760
la bel</w> 1759
lu re</w> 1759
ig ual</w> 1758
ra h</w> 1758
sa g</w> 1758
wi d</w> 1757
bi e</w> 1757
du des</w> 1757
ba ge</w> 1756
ir a</w> 1756
fru stra 1756
est s</w> 1755
en core</w> 1754
pi ssed</w> 1753
pea ce 1753
mis mo</w> 1753
na ugh 1752
exc ited</w> 1752
in tel 1751
b ling</w> 1749
mu m</w> 1748
am ar 1748
speci ally</w> 1748
o tro</w> 1747
t is</w> 1747
ch eat</w> 1747
ã¡ n</w> 1747
aw ful</w> 1747
pet ition</w> 1747
an im 1746
fa v 1746
sto pping</w> 1745
un to</w> 1744
de man 1744
ã </w> 1743
spi ll</w> 1743
brid ges</w> 1743
t ti 1742
al arm</w> 1742
su g 1742
lan do</w> 1740
dig ging</w> 1740
ga ze</w> 1738
qui ere</w> 1738
sli pped</w> 1738
. i. 1737
bo x 1737
win ner</w> 1737
affe ction</w> 1737
so oner</w> 1736
shi ft</w> 1736
sy mp 1736
mon de</w> 1735
cru i 1735
fra gi 1735
colle ge</w> 1735
f its</w> 1732
scre w</w> 1731
re i</w> 1729
tor ture</w> 1729
tan a</w> 1729
coraz on</w> 1729
tu al</w> 1726
contin ue</w> 1726
pra i 1725
ri der</w> 1724
il le</w> 1724
ce ed</w> 1723
ha bit</w> 1722
am en</w> 1722
ea gle</w> 1721
y i</w> 1720
de light</w> 1720
ma ss</w> 1719
sta in</w> 1719
itu al</w> 1719
a ching</w> 1718
f ights</w> 1718
ge o 1718
ro s</w> 1717
ll ev 1717
ro de</w> 1716
po w 1716
bro ad</w> 1716
slee ve</w> 1716
coun ty</w> 1715
cu sed</w> 1714
high est</w> 1714
v ou 1712
ã ª 1712
a .</w> 1711
comm and</w> 1711
sen ten 1710
r ying</w> 1709
far e 1709
t wo- 1708
do se</w> 1708
cap it 1708
sig o</w> 1707
prin cess</w> 1707
sle igh</w> 1707
la ss</w> 1706
sp here</w> 1705
a b</w> 1704
re de 1704
re gu 1704
ssi ve</w> 1704
nes see</w> 1704
pa ul</w> 1703
invi sible</w> 1703
naugh ty</w> 1703
c ling</w> 1702
po sed</w> 1702
mu sc 1702
d urch</w> 1701
s si</w> 1701
guil t</w> 1701
j u</w> 1699
pre ci 1699
je g</w> 1699
thi ef</w> 1699
e ta</w> 1698
sho ve</w> 1698
aven ue</w> 1698
na w</w> 1697
use less</w> 1697
o ffer 1696
san d 1696
lou is</w> 1696
to i 1695
con stantly</w> 1695
ten nessee</w> 1694
sa va 1693
ge e</w> 1693
gra vity</w> 1693
physi cal</w> 1693
h em</w> 1692
gi c</w> 1692
sp rin 1691
b oul 1690
ja mais</w> 1690
can s</w> 1690
o ce 1689
so le</w> 1689
pa sses</w> 1689
mul ti 1689
be lla</w> 1688
don na</w> 1688
sno w 1688
ke ine</w> 1687
brin gin</w> 1687
trou bled</w> 1686
jeal ou 1686
di al</w> 1685
summer time</w> 1685
re place</w> 1683
2 x</w> 1682
bo ld</w> 1681
fa ction</w> 1681
par ano 1681
pri ze</w> 1680
gli o</w> 1680
ha ps</w> 1679
baby lon</w> 1679
d t</w> 1678
ta x 1678
daw g</w> 1678
ve gas</w> 1677
to wer</w> 1676
ul ti 1676
haun ted</w> 1675
pro phe 1674
ou i</w> 1673
a- a- 1672
suck ers</w> 1672
oh ne</w> 1672
e qui 1670
p ons</w> 1670
fa ced</w> 1670
n ur 1669
bea m</w> 1669
1 1</w> 1668
î ¿ 1668
fin ds</w> 1668
person al</w> 1668
th ear 1667
usu ally</w> 1667
li te</w> 1666
por ch</w> 1666
inten tions</w> 1666
lif ted</w> 1666
fu ego</w> 1665
fi lling</w> 1665
au x</w> 1665
impor ta</w> 1665
spit tin</w> 1665
colli de</w> 1665
li p 1664
ro tten</w> 1664
ski p</w> 1664
sud den</w> 1664
er o 1663
ca stle</w> 1662
ja mai 1662
den ti 1662
i ous</w> 1661
re pea 1661
pu lls</w> 1661
dro ppin</w> 1661
dro pping</w> 1661
sho wn</w> 1660
cor ru 1660
ha ted</w> 1659
di dnt</w> 1659
hun t</w> 1659
cl ever</w> 1657
i k 1656
ck ers</w> 1656
at t</w> 1655
stra p</w> 1654
shoo tin</w> 1654
f s</w> 1653
an ge</w> 1653
lyri cal</w> 1653
da vid</w> 1652
fru it</w> 1652
alco hol</w> 1652
be sos</w> 1651
bur den</w> 1651
o il</w> 1650
ma ar</w> 1650
che er</w> 1649
indu stry</w> 1649
war m 1648
ssi ons</w> 1648
di men 1647
dis cover</w> 1647
bo m</w> 1646
bo ws</w> 1646
clo se 1646
arri ve</w> 1646
u m 1645
bu ll</w> 1644
to ps</w> 1644
se du 1643
you ve</w> 1643
car a</w> 1643
funer al</w> 1643
m é 1642
' fore</w> 1642
sa l</w> 1642
bl un 1642
frea ks</w> 1642
a mp 1641
r - 1640
to ss</w> 1640
swee thear 1640
ma ti 1639
cli que</w> 1639
p uni 1638
clo set</w> 1638
climb ing</w> 1638
pu llin</w> 1636
noti ced</w> 1636
un ited</w> 1635
mi edo</w> 1634
sai ling</w> 1634
medi cine</w> 1633
b y 1632
ster eo</w> 1632
bastar d</w> 1631
m ite</w> 1630
be lt</w> 1630
pa pers</w> 1630
na- na- 1630
ø § 1629
yo n</w> 1628
sh ite</w> 1628
go al</w> 1628
so m 1628
see in</w> 1628
ama r</w> 1628
uh- huh</w> 1627
i x 1626
ra ps</w> 1626
app reci 1626
da- da- 1626
butter fly</w> 1626
mo de 1625
wor thy</w> 1625
que ens</w> 1625
sun g</w> 1625
bo ca</w> 1624
con stant</w> 1624
twi light</w> 1624
magaz ine</w> 1624
vo z</w> 1623
ã­ as</w> 1623
nei ther</w> 1623
bi lity</w> 1622
i lu 1621
no i</w> 1621
swin ging</w> 1621
kill ers</w> 1621
ha u 1620
bur st</w> 1620
e x</w> 1618
mi ento</w> 1618
pa so</w> 1618
ll t</w> 1618
i mm 1617
pi cking</w> 1617
comp are</w> 1617
ë  1616
mar s</w> 1616
t ando</w> 1615
lo cal</w> 1614
ha ter</w> 1614
mo mento</w> 1613
per fume</w> 1613
dig o</w> 1613
rece ive</w> 1613
h in</w> 1612
ea tin</w> 1612
or tun 1612
tu tto</w> 1612
per haps</w> 1612
disa ster</w> 1612
cou sin</w> 1611
ch ers</w> 1610
je cts</w> 1610
roo ms</w> 1610
ste pping</w> 1609
bu zz</w> 1608
sp ra 1607
du l 1607
jealou sy</w> 1606
p . 1605
so mos</w> 1605
gon na</w> 1605
s ali 1604
si ã³n</w> 1604
dece mber</w> 1604
sour ce</w> 1604
a an</w> 1603
ti me 1602
eu ch</w> 1600
ho ller</w> 1599
lulla by</w> 1598
or i 1597
ck les</w> 1597
alle in</w> 1597
ha - 1595
hesit ate</w> 1595
ev en 1594
trea ted</w> 1594
ear in</w> 1592
destin ation</w> 1592
st it 1591
nu ff</w> 1591
fare well</w> 1591
g lea 1590
a tin</w> 1590
weir d</w> 1589
so la</w> 1588
gra in</w> 1588
ear th 1588
i di 1587
s ont</w> 1586
bu cks</w> 1586
sa tel 1586
op in 1585
as si 1585
bu tter</w> 1584
de l 1584
dan cer</w> 1584
inde ed</w> 1584
gr a</w> 1583
mur der 1582
s ang 1581
th ighs</w> 1581
gu m</w> 1581
op er 1581
vo u</w> 1581
ff y</w> 1581
can dles</w> 1581
h ug 1580
ra pe</w> 1580
fa ir 1580
geor gia</w> 1579
bu tt 1578
base ment</w> 1578
m . 1577
u . 1576
ro ar</w> 1576
ma th</w> 1576
den s</w> 1576
bi le</w> 1575
a mb 1574
sp or 1574
po pu 1574
inde pen 1574
tri pping</w> 1573
ph ones</w> 1573
cur sed</w> 1573
j ar 1572
pra yed</w> 1572
insan ity</w> 1572
swa g</w> 1571
co lou 1570
sin ner</w> 1570
mar es</w> 1569
far m</w> 1569
haun ting</w> 1569
for med</w> 1568
stu mble</w> 1568
n d</w> 1567
g ru 1567
p ounds</w> 1567
re ver 1567
be i 1567
tu m</w> 1567
la sts</w> 1566
ã± os</w> 1565
ta i 1564
in credi 1563
ma mma</w> 1562
de sign</w> 1562
pu pp 1562
san do</w> 1562
l ur 1561
no tes</w> 1561
sur round</w> 1561
al d</w> 1560
ri des</w> 1560
ro cket</w> 1559
mo thers</w> 1559
sta ined</w> 1559
cu sto 1559
cur ity</w> 1559
pro fe 1558
cro ss 1558
b b</w> 1557
par king</w> 1557
opp o 1557
on i</w> 1556
fif teen</w> 1556
j im</w> 1555
st ly</w> 1555
gra ve 1555
gla sses</w> 1555
guaran tee</w> 1555
ma teri 1554
fa cing</w> 1554
blu e 1554
am ig 1553
weal th</w> 1553
a pa 1552
b ride</w> 1552
in vol 1552
tatt oo</w> 1552
shot gun</w> 1552
i h 1550
ch y</w> 1550
stre tch</w> 1549
eng ine</w> 1549
m eal</w> 1548
lu gar</w> 1548
da sh</w> 1547
bre ed</w> 1547
g gy</w> 1546
who ever</w> 1546
ski lls</w> 1546
sym pathy</w> 1546
ri e</w> 1544
mo de</w> 1544
vi bra 1544
oo ooh</w> 1544
ti cking</w> 1543
fa m</w> 1543
jo u</w> 1543
sch la 1543
dee pest</w> 1543
satis faction</w> 1543
e te</w> 1542
bu mpin</w> 1542
fi end</w> 1542
stu dio</w> 1541
v u</w> 1540
ro ller</w> 1540
qu o 1540
le - 1539
com promise</w> 1539
sho win</w> 1539
vo s</w> 1539
ha i 1538
u ps</w> 1537
on ing</w> 1537
bru sh</w> 1537
su l 1536
vi a 1536
gra bbed</w> 1536
tel evi 1536
wea pons</w> 1535
consi der</w> 1535
gr o</w> 1534
skin ny</w> 1534
wan na</w> 1532
hal o</w> 1532
gla u 1532
al es</w> 1531
cu tting</w> 1530
v re</w> 1529
co sas</w> 1529
ter ed</w> 1529
raz or</w> 1529
o in 1528
on g 1528
sty les</w> 1528
r er</w> 1527
î ½ 1527
hy po 1527
n en 1526
fee ding</w> 1526
ble s 1526
p ter</w> 1524
ba jo</w> 1524
po wer 1524
a chi 1523
cor ners</w> 1523
glo rious</w> 1523
o ã¹</w> 1522
for given</w> 1522
whisper ing</w> 1522
su its</w> 1521
de se 1521
than k 1521
sa do</w> 1520
ri ch 1520
sp en 1520
t ment</w> 1519
s qui 1518
ri ms</w> 1518
mo b</w> 1518
bath room</w> 1518
par don</w> 1517
cru ise</w> 1517
ë </w> 1516
rea r 1515
camin o</w> 1515
b ye 1514
no m</w> 1514
ra ging</w> 1514
list ened</w> 1514
warm th</w> 1514
st .</w> 1513
it e 1513
ha e 1513
compli cated</w> 1513
hust ler</w> 1512
or leans</w> 1511
sta sh</w> 1511
bal ance</w> 1511
ha bla 1510
h ã¶ 1509
ba il</w> 1509
to - 1509
sp ite</w> 1509
tri ple</w> 1509
fla vor</w> 1509
lli on</w> 1509
heal th</w> 1509
d ere</w> 1508
we i</w> 1508
ex cu 1508
divi de</w> 1508
neighbor s</w> 1508
bu d 1507
ste aling</w> 1507
m eets</w> 1506
da do</w> 1506
rev eal</w> 1506
lo wer</w> 1505
c ta 1504
ch eri 1504
ck ey</w> 1504
fin na</w> 1504
mar ia</w> 1504
m ãª 1503
r ors</w> 1503
drea mer</w> 1503
eng lish</w> 1503
rou te</w> 1503
e specially</w> 1502
z er 1502
ri ches</w> 1502
sen za</w> 1502
j ug 1501
ca m 1501
to ll</w> 1500
ff ed</w> 1500
hel ps</w> 1500
cree pin</w> 1500
sta b</w> 1499
bar rel</w> 1499
super star</w> 1499
ba si 1498
si pping</w> 1498
ve ces</w> 1498
vir gin</w> 1498
he it</w> 1497
dig gin</w> 1497
ca used</w> 1496
ki es</w> 1496
hu s 1496
s laughter</w> 1495
gen i 1495
pi ano</w> 1494
c ities</w> 1493
y ell</w> 1493
b lo</w> 1493
on e 1493
ton y</w> 1493
ir o</w> 1493
s lang</w> 1492
4 5</w> 1491
fragi le</w> 1491
cho ir</w> 1490
whisp ered</w> 1490
wol ves</w> 1490
or es</w> 1489
ã± a</w> 1489
gran de</w> 1489
ha ben</w> 1488
wi shin</w> 1488
mi se</w> 1487
chas in</w> 1487
st ig 1486
sta tic</w> 1486
ble ssing</w> 1486
pen ny</w> 1486
bit ter 1485
sex ual</w> 1485
k ai</w> 1484
co ol 1484
bu bb 1483
ex e 1483
ac ci 1483
char lie</w> 1483
deca y</w> 1483
di stra 1482
fro wn</w> 1482
ab solu 1482
ton s</w> 1481
komm t</w> 1480
practi ce</w> 1480
tt a 1479
fla shing</w> 1479
guaran te 1479
swe pt</w> 1478
s way</w> 1477
bra u 1477
sick ness</w> 1477
oce ans</w> 1477
p ly</w> 1476
pa ble</w> 1476
na il</w> 1476
ch ron 1475
man s</w> 1475
shin y</w> 1475
fo g</w> 1475
chi ca 1474
a ds</w> 1473
1 6</w> 1472
sp ort</w> 1472
righte ous</w> 1471
ja y</w> 1470
dre w</w> 1470
ci vi 1469
whi r 1469
bu sh</w> 1468
mm ed</w> 1468
shi f 1468
ho mes</w> 1467
ë ¦ 1465
te xt</w> 1465
man os</w> 1465
cree ping</w> 1465
ii ii 1464
less ons</w> 1464
thir st</w> 1463
break fast</w> 1463
a ma</w> 1462
t ank</w> 1462
sin c 1462
rela tion 1462
e pi 1460
s ã³ 1460
k un 1460
so cial</w> 1460
ang el 1460
grand ma</w> 1460
g el 1459
tu e</w> 1459
vo c</w> 1459
dr .</w> 1459
her z</w> 1459
ta p</w> 1458
tur a</w> 1458
comm uni 1458
anim als</w> 1458
ge ment</w> 1457
than gs</w> 1457
com petition</w> 1456
tal ity</w> 1456
ff s</w> 1456
g ee 1455
ë  1455
the y 1455
rea ction</w> 1455
t ness</w> 1454
wh y'all</w> 1454
my eon</w> 1454
spea ks</w> 1454
grou p</w> 1454
a stray</w> 1453
sc an 1453
fin est</w> 1453
col our</w> 1453
an tes</w> 1452
in va 1451
est re 1450
a che</w> 1449
car ol 1449
cur tain</w> 1449
big gie</w> 1449
cy cle</w> 1449
happ i 1448
l' amour</w> 1448
over come</w> 1448
d rain</w> 1447
lea f</w> 1447
con tr 1447
i cy</w> 1446
a p</w> 1446
co tton</w> 1445
g ga</w> 1443
gr it 1443
ali ze</w> 1443
be so</w> 1442
ha h</w> 1442
h ee 1441
di zzy</w> 1441
de mo 1441
abu se</w> 1441
qu ero</w> 1440
figh tin</w> 1440
tou jours</w> 1439
ser ved</w> 1439
ã ® 1439
ar ra 1438
chica go</w> 1438
e k</w> 1437
st ee 1437
p lot</w> 1436
ra g</w> 1436
fa c 1436
mo ms</w> 1435
bor ing</w> 1435
mo u</w> 1434
pu shin</w> 1434
ã§ ã£o</w> 1434
ctor s</w> 1434
pen sar</w> 1433
ê² </w> 1433
n st</w> 1432
j us</w> 1432
ha m 1432
psy cho 1432
1 5</w> 1431
pro gre 1431
ä± m</w> 1431
victi ms</w> 1431
part ment</w> 1431
ignor ance</w> 1431
mo vement</w> 1430
bi li 1430
wea rs</w> 1430
mutha fuckin</w> 1430
bang in</w> 1430
m at</w> 1429
or i</w> 1429
p ti 1428
ar me</w> 1428
ro cky</w> 1428
so o 1428
tu do</w> 1428
gre en 1428
s st</w> 1427
en en</w> 1427
ge hen</w> 1427
po wers</w> 1427
î ¹ 1426
ra ts</w> 1426
n es</w> 1425
di ss</w> 1425
super man</w> 1425
mi g</w> 1424
sta yin</w> 1423
ob vious</w> 1423
gang ster</w> 1423
cigare ttes</w> 1422
ff le</w> 1421
war n</w> 1419
dri ven</w> 1419
ough ta</w> 1419
8 0</w> 1418
conne cted</w> 1418
infor mation</w> 1418
sweethear t</w> 1418
bu tton</w> 1417
fe ds</w> 1417
ein en</w> 1417
sh allow</w> 1415
tur y</w> 1414
ag ony</w> 1414
aver age</w> 1414
g lance</w> 1413
slee ps</w> 1413
du es</w> 1412
doub ts</w> 1412
oo oo</w> 1411
pre y</w> 1411
hu mble</w> 1411
blan k</w> 1411
sk a</w> 1409
ke e</w> 1409
bor der</w> 1409
inspi ration</w> 1409
s ã³</w> 1408
part ner</w> 1408
í  1408
wi shed</w> 1407
sho pping</w> 1407
the tic</w> 1406
ì  1406
seven teen</w> 1406
u i</w> 1405
pa - 1405
par te</w> 1405
apologi ze</w> 1404
g ã¶ 1403
re minds</w> 1403
to das</w> 1403
up set</w> 1403
pl ant</w> 1403
n un</w> 1402
you - 1402
cal s</w> 1401
w oh</w> 1400
ar ise</w> 1400
hor n</w> 1400
sea ts</w> 1400
jack son</w> 1399
bo wl</w> 1398
terri ble</w> 1398
bles sings</w> 1398
de aling</w> 1397
hel ped</w> 1397
an ge 1396
hal f- 1396
re presen 1395
sc are</w> 1395
who a- 1395
be lle</w> 1394
fai ry</w> 1394
nuestr o</w> 1394
fi x 1393
smo ked</w> 1393
a to</w> 1392
ta mb 1391
pa ying</w> 1391
pp i</w> 1391
hu m</w> 1391
prote ction</w> 1391
e a</w> 1390
el even</w> 1390
lu ci 1390
sch ei 1390
ir gen 1390
arri ved</w> 1390
t ã©</w> 1389
en vy</w> 1389
mi st 1389
com pu 1389
dea s</w> 1389
stri kes</w> 1389
champi on</w> 1389
ê ³</w> 1388
cen tury</w> 1388
mexi co</w> 1388
lip stick</w> 1386
ch all 1385
mp er</w> 1385
nu ttin</w> 1385
a pri 1384
se al</w> 1384
cor a</w> 1384
li m 1383
sp el 1383
fal ta</w> 1383
temp le</w> 1383
f east</w> 1382
night mares</w> 1382
ve il</w> 1381
qui e 1381
foot steps</w> 1381
ê · 1380
se hen</w> 1380
ba th</w> 1379
di scu 1379
sã³ lo</w> 1379
c run 1378
or y</w> 1378
geor ge</w> 1378
re jo 1377
ju ly</w> 1377
me o</w> 1376
supp ort</w> 1376
c ease</w> 1375
hear s</w> 1375
brea ker</w> 1375
ã ¬</w> 1374
ma x</w> 1374
pa ys</w> 1374
man e</w> 1374
s wo 1373
ge h</w> 1373
â â 1373
y up</w> 1372
gu tter</w> 1372
par aly 1372
sou l 1371
phan tom</w> 1371
descri be</w> 1371
ta it</w> 1370
fa thers</w> 1370
bi l 1370
who m</w> 1370
nu evo</w> 1370
cou pe</w> 1370
ã© e</w> 1370
friend ly</w> 1370
po der</w> 1369
r ãª 1368
tr ance</w> 1367
fi ends</w> 1367
ob li 1367
span ish</w> 1367
l end</w> 1366
pi le</w> 1366
che w</w> 1366
wonder in</w> 1366
hit ting</w> 1366
di sh</w> 1365
mp tion</w> 1365
h st</w> 1364
t ine</w> 1364
sta ins</w> 1364
teen age</w> 1364
n de</w> 1363
a void</w> 1363
da tion</w> 1363
bloo m</w> 1363
beg gin</w> 1363
obe y</w> 1363
n eva</w> 1362
s our</w> 1362
ê ¸ 1362
si en 1362
le st</w> 1362
non - 1362
r ig 1361
men ti 1361
cho ices</w> 1361
medi a</w> 1361
ê° </w> 1361
ex pre 1360
que sto</w> 1360
beli ever</w> 1360
st - 1359
su m</w> 1359
mea sure</w> 1359
t wer 1358
li c</w> 1358
bu ying</w> 1358
heart break</w> 1357
ï  1356
ta ils</w> 1356
fou l</w> 1356
peace ful</w> 1356
fu era</w> 1355
le c 1354
vel vet</w> 1354
incredi ble</w> 1354
de gree</w> 1353
dr en 1353
stor my</w> 1353
thir sty</w> 1353
how ever</w> 1352
- up</w> 1351
fi red</w> 1351
ex press</w> 1351
d' un</w> 1351
dy na 1351
tro s</w> 1350
em pire</w> 1350
z za</w> 1349
for tun 1349
ck a</w> 1348
he i 1348
tro p</w> 1348
ko to</w> 1348
deci r</w> 1348
k nu 1347
re cei 1347
nee ding</w> 1347
hard core</w> 1347
b ing</w> 1346
sur re 1346
sku ll</w> 1346
ad van 1345
m ers</w> 1344
prin ts</w> 1344
quer er</w> 1344
v ig 1343
st oned</w> 1343
ca tching</w> 1343
ch u</w> 1343
daugh ters</w> 1343
suff o 1343
gi ant</w> 1342
ma ta</w> 1341
i ling</w> 1340
b ore</w> 1340
en tre 1340
re be 1340
da de</w> 1340
hi stor 1340
drea d</w> 1340
bor row</w> 1340
oc cu 1339
poi son 1339
mutha fucka</w> 1339
ro bo 1338
pa z</w> 1338
dar te</w> 1338
am oun 1338
fai lure</w> 1338
bad dest</w> 1338
sk e 1337
comp ton</w> 1337
coraz n</w> 1337
honest ly</w> 1337
a yo</w> 1336
er on</w> 1336
ja w</w> 1336
sw eep</w> 1336
t at</w> 1335
0 00</w> 1335
la tions</w> 1335
ser vice</w> 1335
ã¢ ââ 1335
chall en 1335
ni em 1334
min ha</w> 1334
al lowed</w> 1333
or ange</w> 1333
cru shed</w> 1333
fil thy</w> 1333
d ign 1332
ca sket</w> 1332
be coming</w> 1332
spea kers</w> 1332
ho mbre</w> 1331
wan dering</w> 1331
shi eld</w> 1331
qu' il</w> 1331
g ear</w> 1330
ven i 1330
emo tional</w> 1330
oh-oh- oh</w> 1330
r on</w> 1329
k n 1329
an ts</w> 1329
ra b 1328
car ess</w> 1328
v em</w> 1327
g loo 1327
go s</w> 1327
conne ct</w> 1327
leg end</w> 1327
cra dle</w> 1326
boo th</w> 1326
fli ppin</w> 1326
ch te</w> 1325
car i 1325
fir m</w> 1325
vi cious</w> 1324
at mo 1324
p reach</w> 1323
an xi 1323
hel ping</w> 1323
play ers</w> 1323
i deas</w> 1322
le ttin</w> 1322
con quer</w> 1322
an cora</w> 1321
al ley</w> 1321
pri me</w> 1321
wa an</w> 1320
har lem</w> 1320
ski rt</w> 1320
ku sh</w> 1320
symp hon 1320
v oo 1319
sa ints</w> 1319
qui era</w> 1319
crow ded</w> 1319
do c</w> 1318
tu a</w> 1318
se mb 1317
qu em</w> 1317
fe st</w> 1317
posit ive</w> 1317
fuck as</w> 1316
so g 1315
hur tin</w> 1315
i re 1314
man i</w> 1314
ye h</w> 1314
lun ch</w> 1314
s ights</w> 1312
sto ck</w> 1312
2 4</w> 1311
fa ce 1311
pe ter</w> 1311
cra cked</w> 1311
stro ke</w> 1311
n ings</w> 1310
ve o</w> 1310
spo t 1310
million aire</w> 1310
ì  1309
en cuen 1309
sli ce</w> 1309
mãª me</w> 1309
sp il 1308
cal i</w> 1308
colle ct</w> 1308
e lo 1307
c d</w> 1307
th reat</w> 1307
ti le</w> 1307
be - 1307
tal s</w> 1307
se curity</w> 1306
bi a</w> 1306
sw er 1306
opp ortun 1306
devo tion</w> 1306
sto ppin</w> 1305
list enin</w> 1305
scar y</w> 1305
bu g</w> 1304
mi d</w> 1304
su pre 1304
sc en 1304
ye ux</w> 1304
hor ror</w> 1304
te k</w> 1303
tig er</w> 1303
excu ses</w> 1303
m our</w> 1302
un ion</w> 1302
ga so 1302
fu i</w> 1302
bi ke</w> 1302
e sti 1301
coun tin</w> 1301
foo led</w> 1300
gi or 1299
b lea 1298
en ga 1298
ac tually</w> 1298
echo es</w> 1298
jer k</w> 1297
relie f</w> 1297
swal lowed</w> 1296
nece ss 1296
thr ough 1295
see king</w> 1295
.... ..</w> 1295
mar ket</w> 1294
pro me 1293
tu es 1293
laugh in</w> 1293
gy psy</w> 1293
hen ne 1293
experi ence</w> 1293
qui si 1292
â ¡ 1291
ci an</w> 1291
fol k</w> 1291
clu bs</w> 1291
sna tch</w> 1291
for sa 1290
pi g</w> 1290
sc in 1290
mar ks</w> 1290
tatt oo 1290
n n</w> 1289
w earin</w> 1289
al in</w> 1289
po ps</w> 1289
lu x 1289
dev ils</w> 1289
chev y</w> 1289
r are</w> 1288
le i</w> 1288
survi val</w> 1288
di ddy</w> 1287
gre et</w> 1287
ma sh</w> 1286
ac cep 1286
ã ¦ 1286
desp ite</w> 1286
guarante ed</w> 1286
d man</w> 1285
s lan 1285
se u</w> 1285
ch ã©</w> 1285
di stur 1285
mo an</w> 1285
ver te</w> 1285
gre es</w> 1285
ì ´ 1285
s ity</w> 1284
y ay</w> 1284
la is 1284
warri or</w> 1284
t su</w> 1283
su it 1283
tar get</w> 1283
human ity</w> 1283
à ¤ 1282
cor por 1282
va is</w> 1282
pe te</w> 1281
o x 1280
ka i 1280
confi dence</w> 1280
ï  1279
vo lu 1279
be es</w> 1278
ra ted</w> 1278
tra gic</w> 1278
hou ses</w> 1278
perfe ction</w> 1278
d r</w> 1277
a sh</w> 1277
sa m 1277
me mp 1277
y u</w> 1276
bu sta</w> 1276
shar ing</w> 1276
mon do</w> 1275
r ounds</w> 1274
ear n</w> 1274
hal f 1274
cli ps</w> 1274
sla ves</w> 1274
che cks</w> 1273
hal t</w> 1273
cer tain 1273
dep end</w> 1273
o i 1272
ho spit 1272
to oth</w> 1272
de f</w> 1272
wra th</w> 1272
m ig 1271
pa l</w> 1271
as sho 1271
cr ank</w> 1271
tin a</w> 1271
evi dence</w> 1271
å  1270
wh ee 1270
con sequ 1269
ja cket</w> 1269
def end</w> 1269
re gi 1268
to tally</w> 1268
ã­ o</w> 1268
in stin 1267
ca be 1266
cu lt</w> 1266
per d 1266
dr un 1266
d well</w> 1265
pal ab 1265
od ds</w> 1265
equ al</w> 1265
po pped</w> 1264
pa sa</w> 1263
lu v</w> 1263
hus band</w> 1263
f u</w> 1262
ar med</w> 1262
sho w 1262
min es</w> 1262
cri mes</w> 1262
dra gon</w> 1262
honest y</w> 1262
tr on</w> 1261
dur o</w> 1261
r ã© 1260
ð ¾ 1260
bu sted</w> 1260
cal or</w> 1260
chil d 1260
z os</w> 1259
ig e</w> 1259
cond iti 1259
shel ls</w> 1258
psy cho</w> 1258
ti erra</w> 1257
be d 1257
ra il 1257
deci sions</w> 1257
expe cted</w> 1257
fil m</w> 1257
a hhh</w> 1256
ch ina</w> 1256
pa use</w> 1256
stor ms</w> 1256
cur tains</w> 1256
comfor table</w> 1256
a ha</w> 1255
gra teful</w> 1255
e den</w> 1254
loo t</w> 1254
du b</w> 1254
under stands</w> 1254
al o 1253
pi do</w> 1253
che ckin</w> 1253
good -bye</w> 1253
an e</w> 1252
ten sion</w> 1252
bai lar</w> 1252
t ley</w> 1251
su cks</w> 1251
sti r</w> 1251
han ded</w> 1251
can cer</w> 1251
i do 1250
ã¼ n 1250
de tro 1249
de pen 1249
hal e</w> 1249
plan es</w> 1249
cul ture</w> 1249
g g 1248
an n 1248
vuel ve</w> 1248
on i 1247
re late</w> 1247
fi sh 1247
fea ther</w> 1247
circu m 1247
du mp</w> 1246
san e</w> 1246
ha go</w> 1245
dea f</w> 1245
won ders</w> 1245
liber ty</w> 1245
poin ts</w> 1245
usu al</w> 1245
me ta 1244
spo on</w> 1244
j ou 1243
bu zz 1243
cir cus</w> 1243
z ur 1242
co al</w> 1242
temp era 1242
m ali 1241
fr ank</w> 1241
in ci 1240
we it 1240
bea ms</w> 1240
appreci ate</w> 1240
g ment</w> 1239
fu i 1239
wo y</w> 1239
d ong</w> 1238
ch at</w> 1236
lin k</w> 1236
l. a.</w> 1236
pien so</w> 1236
sensa tion</w> 1236
p eel</w> 1235
' cha</w> 1235
gar bage</w> 1235
sir ens</w> 1235
en cia</w> 1234
sto mp</w> 1234
ten ing</w> 1234
x - 1233
in k</w> 1233
ma - 1233
sta tus</w> 1232
kar ma</w> 1232
drow ned</w> 1232
ë  1232
consci ous</w> 1232
invol ved</w> 1232
c . 1231
al o</w> 1231
do te</w> 1231
good ness</w> 1231
sava ge</w> 1231
i an</w> 1230
4 - 1230
com pre 1230
a sh 1229
glo wing</w> 1229
jun e</w> 1229
de c 1228
we b</w> 1228
e w</w> 1226
th le 1226
ri ses</w> 1225
gra ves</w> 1225
cont ent</w> 1225
irgen d 1225
che cking</w> 1224
blun ts</w> 1224
detro it</w> 1224
ca su 1223
co ffin</w> 1223
mo tor</w> 1223
pi ckin</w> 1223
ex pen 1223
fo x</w> 1223
rep ly</w> 1223
hal ls</w> 1222
fel la</w> 1222
travel ing</w> 1222
materi al</w> 1222
ac tions</w> 1221
ì§  1221
di ffi 1220
bo mb 1219
break down</w> 1219
hypnoti zed</w> 1219
voo doo</w> 1219
mo lly</w> 1218
ex it</w> 1218
destro yed</w> 1218
bai la</w> 1218
ma ster 1217
me ssing</w> 1217
ge sch 1217
par ties</w> 1217
es sence</w> 1217
ous ness</w> 1217
ë  1217
br it 1216
hel la</w> 1216
arti st</w> 1216
be ha 1215
de spi 1215
fu ss</w> 1215
ni e 1215
concer ned</w> 1215
a tely</w> 1214
ki m</w> 1214
war ned</w> 1214
ven ge 1214
dan g</w> 1213
y n</w> 1212
la test</w> 1212
ga u 1212
hi ll 1212
pre gun 1212
conne ction</w> 1212
i g</w> 1211
stea m</w> 1211
e . 1210
bla h</w> 1210
betra yed</w> 1210
s lay</w> 1209
pul se</w> 1209
through out</w> 1209
j ive</w> 1208
fi le</w> 1208
he ute</w> 1207
sco pe</w> 1207
jo y 1206
olvi dar</w> 1206
we st 1205
va cation</w> 1205
a me</w> 1204
ba h</w> 1204
cu p 1204
fo cused</w> 1204
mira da</w> 1204
yal ty</w> 1204
segu ir</w> 1204
tues day</w> 1204
su m 1203
sin ger</w> 1203
addi ction</w> 1203
a mon 1202
a im 1202
er ta</w> 1202
de ja 1202
sha kes</w> 1202
e mos</w> 1201
sti cky</w> 1201
see - 1200
ph er 1200
____ ____ 1200
pha se</w> 1200
s well</w> 1199
sou s</w> 1199
cor pse</w> 1199
chi ef</w> 1198
dis respect</w> 1198
home y</w> 1198
ca b</w> 1197
tri bu 1197
ke it</w> 1197
produ ct</w> 1197
tang led</w> 1197
la c</w> 1196
mi ami</w> 1196
whi ps</w> 1196
who o</w> 1196
ã £ 1196
c le 1195
so bre</w> 1195
cra ve</w> 1195
etern ally</w> 1195
sche me</w> 1195
ì  1194
th o</w> 1194
anti cipa 1194
christi an</w> 1194
i si 1193
i hn</w> 1193
fa g 1193
we d 1193
vo w</w> 1193
shi ver</w> 1193
sig ue</w> 1193
a v</w> 1192
9 9</w> 1192
or e 1192
re surre 1192
su spi 1192
cu i 1192
bea ten</w> 1192
cra p</w> 1192
prison er</w> 1192
r ang</w> 1191
to ol</w> 1191
bro ads</w> 1191
am igo</w> 1191
bra s</w> 1191
d ine</w> 1190
w ounded</w> 1190
gentle men</w> 1190
ra do</w> 1189
co ck 1189
bo ku</w> 1189
main tain</w> 1189
atmo sphere</w> 1189
re pu 1188
re mor 1188
fa is</w> 1188
hun dre 1188
abandon ed</w> 1188
se ction</w> 1187
wi g</w> 1187
si to</w> 1187
san ity</w> 1187
missi ssi 1187
h u</w> 1186
so cks</w> 1186
fa ch</w> 1186
de h</w> 1186
pi cal</w> 1186
cru mble</w> 1186
swin gin</w> 1186
safe ty</w> 1186
oooo oooo 1185
f ear 1184
lo ca</w> 1184
so il</w> 1184
de mo</w> 1184
ab a</w> 1184
fa scin 1183
hi des</w> 1183
for ces</w> 1183
pra yin</w> 1183
contin u 1183
b yes</w> 1182
b our 1182
st les</w> 1182
tu o</w> 1182
disapp eared</w> 1182
boul ev 1181
u sa</w> 1180
ï  1180
ma je 1180
na tional</w> 1180
w w 1179
es se</w> 1179
fo is</w> 1179
gaso line</w> 1179
le ur</w> 1178
roman tic</w> 1178
ru shing</w> 1177
hi - 1177
ci ones</w> 1177
2 - 1176
ra pping</w> 1176
de grees</w> 1176
foo ling</w> 1176
bro ad 1175
ve ly</w> 1175
min ate</w> 1175
e g</w> 1174
na m</w> 1174
so lation</w> 1173
fi sts</w> 1173
gy al</w> 1173
defen se</w> 1173
ther ing</w> 1172
st rain</w> 1171
qu oi</w> 1171
ton gues</w> 1171
ex tre 1171
hh hhh</w> 1171
half way</w> 1171
l ã¤ 1170
ll es</w> 1170
ar i</w> 1169
pa ck 1169
den ts</w> 1169
hal l 1169
f lo</w> 1167
gu er 1167
l. a</w> 1167
k na 1166
to mb</w> 1166
mi re</w> 1166
of fice</w> 1166
a ku</w> 1165
ro meo</w> 1165
co w</w> 1165
mi m</w> 1165
fi xed</w> 1165
laugh s</w> 1165
th read</w> 1164
hi d</w> 1164
care er</w> 1164
a p 1163
dri pping</w> 1163
hust lin</w> 1163
b- b- 1163
ãº n</w> 1163
zo mbi 1163
a qu</w> 1162
ra cks</w> 1162
de mise</w> 1162
sou th 1162
gro win</w> 1162
gan as</w> 1162
k la 1161
k ong</w> 1161
fanta sies</w> 1161
hand some</w> 1161
dep ths</w> 1161
reck less</w> 1161
gim mie</w> 1161
ci p 1160
ten er</w> 1160
mel ting</w> 1160
g . 1159
ra ble</w> 1159
sa gt</w> 1159
wor thless</w> 1159
ci es</w> 1159
dan do</w> 1159
lin ger</w> 1159
tou r 1159
hon ey 1159
aug en</w> 1159
lo - 1158
de sign 1158
se re</w> 1157
ha w 1157
rea ds</w> 1157
ne st</w> 1157
gree dy</w> 1157
ge on</w> 1156
ban ks</w> 1156
k ita</w> 1155
je der</w> 1155
can to</w> 1155
ev' ry</w> 1155
knee l</w> 1155
rede mption</w> 1155
symphon y</w> 1155
v - 1154
cal le</w> 1154
sil hou 1154
lei cht</w> 1154
h on</w> 1153
poe try</w> 1153
effe ct</w> 1153
musc le</w> 1153
v ey</w> 1152
vi el 1152
mor s</w> 1152
ë ° 1151
ta stes</w> 1151
memp his</w> 1151
ci el</w> 1150
u d</w> 1149
tun nel</w> 1149
wa x</w> 1148
ca mer 1148
be m</w> 1148
pro per</w> 1148
boo t</w> 1148
ben tley</w> 1148
thou sands</w> 1148
h ound</w> 1147
ber t</w> 1147
clou dy</w> 1147
jun to</w> 1147
thank ful</w> 1147
ar ro 1146
di sc 1146
goo se</w> 1146
pe l</w> 1146
bea tin</w> 1146
reg ga 1146
ri f 1145
cha r</w> 1145
geni us</w> 1145
mel low</w> 1144
mien tras</w> 1144
h ren</w> 1143
pe u</w> 1143
wonder ed</w> 1143
ner ves</w> 1143
wil lie</w> 1143
slu t</w> 1143
afri ca</w> 1143
year ning</w> 1143
g ga 1142
a ch</w> 1142
p ounding</w> 1142
ev o 1142
de ix 1142
far ther</w> 1142
classi c</w> 1142
forsa ken</w> 1142
al ler</w> 1141
ne un</w> 1141
jo kes</w> 1141
ang ed</w> 1141
slu gs</w> 1141
a in</w> 1140
z oo</w> 1140
sep te 1140
en ces</w> 1140
beg in 1140
televi sion</w> 1140
de i</w> 1139
ver ti 1139
dis grace</w> 1139
chi lling</w> 1138
att emp 1138
child hood</w> 1138
ho ped</w> 1137
ta k</w> 1137
vo m</w> 1137
ac ti 1137
tri al</w> 1137
may ne</w> 1137
wonder land</w> 1137
conta ct</w> 1137
li mit 1136
do y</w> 1136
me ter</w> 1136
reme dy</w> 1136
desi res</w> 1136
em ce 1136
ta te</w> 1135
imp ro 1135
ai y 1135
v am 1134
ar gu 1134
par ted</w> 1134
ac cor 1134
du re</w> 1134
mu ero</w> 1133
pe e</w> 1133
pue des</w> 1133
t et</w> 1132
j as</w> 1132
mo tor 1132
com par 1132
figh ter</w> 1132
b ind</w> 1131
com mun 1131
po s</w> 1131
bla zing</w> 1131
plea d</w> 1131
kon o</w> 1131
ã¢ââ  1131
al g 1130
rea r</w> 1130
spo ts</w> 1130
mississi ppi</w> 1130
k it</w> 1129
do o- 1128
mon o 1128
sna kes</w> 1128
figur es</w> 1128
du g</w> 1127
sacri fi 1127
pan ties</w> 1126
y an</w> 1125
t ings</w> 1124
re dee 1124
ch arms</w> 1124
qui la</w> 1124
coul da</w> 1124
h lt</w> 1123
e z</w> 1123
th ur 1123
in stant</w> 1123
re vol 1123
te sti 1123
per man 1123
qui cker</w> 1123
gen cy</w> 1123
que da</w> 1122
illu sions</w> 1122
grin din</w> 1122
i x</w> 1121
a ko</w> 1121
ch ris</w> 1121
ma sses</w> 1120
fa ut</w> 1120
pi c</w> 1120
star tin</w> 1120
pre di 1120
ph ra 1120
emb ra 1120
ein fach</w> 1120
u s 1119
wh it 1119
pro vo 1119
win d 1119
a is</w> 1118
st oo 1118
ti er</w> 1118
bu cket</w> 1118
ce - 1118
perfe ctly</w> 1118
frigh tened</w> 1118
spot light</w> 1118
an na</w> 1117
qu al 1117
ru g</w> 1117
for getting</w> 1117
car pet</w> 1117
snea k</w> 1117
senten ce</w> 1117
1 - 1115
le jos</w> 1115
mo l 1115
lea p</w> 1115
gr ant</w> 1115
spar ks</w> 1115
n igh 1114
in ve 1114
it ely</w> 1114
do zen</w> 1114
gu es 1114
wr on 1114
h rt</w> 1113
c to</w> 1113
ro w 1113
bu d</w> 1113
su cking</w> 1113
tu de</w> 1113
ã  1113
1 3</w> 1112
gen u 1112
is le</w> 1112
jamai ca</w> 1112
qu esta</w> 1111
fu se</w> 1111
sm ith</w> 1111
og ni</w> 1111
a yer</w> 1110
ig en</w> 1110
con centra 1110
travel ed</w> 1110
even tually</w> 1110
p at</w> 1109
star in</w> 1109
gra du 1109
la- la</w> 1109
a we 1108
cri pp 1108
gener al</w> 1108
co llar</w> 1107
ter re</w> 1107
cur a</w> 1107
cen se</w> 1107
vi ento</w> 1106
colou rs</w> 1106
st itu 1105
ta u 1105
sk ele 1105
he ed</w> 1105
î ¹</w> 1104
dem and</w> 1104
ar ing</w> 1103
sh - 1103
ga ts</w> 1103
fu el</w> 1103
po w</w> 1103
run g</w> 1103
ð µ 1102
un ite</w> 1102
ju li 1102
ven us</w> 1102
pen e 1102
batt le 1102
pow der</w> 1102
septe mber</w> 1102
ë ¥ 1101
da ke</w> 1101
yea h- 1101
blin ding</w> 1101
ä± n</w> 1101
cheri sh</w> 1101
k om</w> 1100
te ch</w> 1100
war um</w> 1100
tre ss</w> 1100
all - 1100
jen ny</w> 1100
k ke 1099
ro mp 1099
chi ck 1099
boy z</w> 1099
st op 1098
sa ge</w> 1098
ge tcha</w> 1098
tu n</w> 1098
ba- ba- 1098
in fer 1097
an za</w> 1097
ti g</w> 1097
ho t 1097
venge ance</w> 1097
e gal</w> 1096
ë ³ 1096
to ck</w> 1096
ever more</w> 1096
min a</w> 1096
ë </w> 1096
en contra 1095
ma ze</w> 1095
ca ma</w> 1095
cha ined</w> 1095
ang le</w> 1095
believ es</w> 1095
en se 1094
sin ners</w> 1094
ja zz</w> 1094
sli ps</w> 1094
neigh bor</w> 1094
ì§ </w> 1094
se v 1093
wh ores</w> 1093
kin ds</w> 1093
li ke 1092
ce ment</w> 1092
see ' 1092
sc enes</w> 1091
ac id</w> 1091
fle e</w> 1091
sp reading</w> 1090
tri ste</w> 1090
thi eves</w> 1090
po st 1089
man sion</w> 1089
ten s</w> 1089
pit ch</w> 1089
warri ors</w> 1089
re qui 1088
tt est</w> 1088
we stern</w> 1088
will st</w> 1088
al t</w> 1087
vo glio</w> 1087
it i</w> 1086
ho s</w> 1086
cu ore</w> 1086
woul da</w> 1086
brea st</w> 1085
per der</w> 1085
cou p</w> 1085
mi cs</w> 1084
fa tal</w> 1084
lin da</w> 1084
kin dness</w> 1084
mach ines</w> 1084
pati ently</w> 1084
be sides</w> 1083
tr en 1083
pu is</w> 1083
ni es</w> 1083
boulev ard</w> 1083
ã ´ 1082
da i</w> 1082
app ar 1082
gri m</w> 1082
dog g</w> 1082
mee ting</w> 1082
sinc ere</w> 1082
co py</w> 1081
rea p</w> 1081
ab ra 1081
hor ns</w> 1081
sn itch</w> 1081
impre ss</w> 1081
amon gst</w> 1081
kni ves</w> 1080
in to 1078
an ne</w> 1078
or gan 1078
du sty</w> 1078
ê· ¸ 1078
gi o</w> 1077
ur es</w> 1077
vi ene</w> 1077
satel lite</w> 1077
wa ving</w> 1076
cho pper</w> 1076
destin o</w> 1076
o hhhh</w> 1075
so da</w> 1075
qu eri 1075
cor ri 1075
mir rors</w> 1075
r te</w> 1074
regu lar</w> 1074
st unt</w> 1073
con ten 1073
tor ch</w> 1073
friend ship</w> 1073
a mu 1072
gu l 1072
sc ale</w> 1072
ser ving</w> 1072
ã© n 1072
aiy yo</w> 1072
de ss</w> 1071
cu rious</w> 1071
bal d</w> 1071
fro st</w> 1070
photogra ph</w> 1070
g na 1069
spit ting</w> 1069
dic en</w> 1069
s oun 1068
mm mm</w> 1068
b ba</w> 1067
re verse</w> 1067
pa tter 1067
sta ke</w> 1067
pen a</w> 1067
n ear 1066
m ere</w> 1065
an da</w> 1065
lo cks</w> 1065
wi lli 1065
slee pless</w> 1065
nor thern</w> 1065
dow ns</w> 1065
pain ful</w> 1065
sym bo 1065
ì ´ 1065
pro jects</w> 1064
car ries</w> 1064
du n</w> 1064
nu it</w> 1064
cho king</w> 1064
n is</w> 1063
fr ance</w> 1063
na tions</w> 1062
u mp 1061
na tur 1061
llo rar</w> 1061
spee ch</w> 1061
sole dad</w> 1061
ì  1060
chi p</w> 1060
sca ttered</w> 1060
tech ni 1060
de bt</w> 1059
car rying</w> 1059
jor dan</w> 1059
e on 1058
ð ° 1058
an aly 1058
ri bb 1058
resi stance</w> 1058
justi fy</w> 1058
coul dnt</w> 1058
un kind</w> 1057
rea ct</w> 1057
ma tt 1056
de on</w> 1056
mis understood</w> 1056
i do</w> 1055
k ung</w> 1055
se ri 1055
la un 1055
me ssin</w> 1055
al mighty</w> 1054
ca ta 1054
di mes</w> 1054
tr in 1054
est ã¡s</w> 1054
ra ys</w> 1053
amoun t</w> 1053
j ean</w> 1052
re inde 1052
tch er</w> 1052
real est</w> 1052
star light</w> 1051
dark er</w> 1051
four th</w> 1051
in ti 1050
st i</w> 1050
ha cer 1050
ci ans</w> 1050
man a 1050
celebra tion</w> 1050
sa d 1049
me - 1049
fa z</w> 1049
br en 1049
ni ck</w> 1049
crea tures</w> 1049
spir itual</w> 1049
do- do- 1049
remor se</w> 1049
c ers</w> 1047
ì  1047
st an</w> 1047
ti res</w> 1047
de termin 1047
wal let</w> 1047
dra ws</w> 1047
ã¶ n 1047
cuen ta</w> 1047
recuer do</w> 1047
n it 1046
un fold</w> 1046
stu dy</w> 1046
tender ness</w> 1046
brui sed</w> 1046
ar ma 1045
hon da</w> 1045
zz i</w> 1045
yel ling</w> 1045
la wn</w> 1044
ta do</w> 1044
tra ins</w> 1044
bl ur 1044
blon de</w> 1044
assho le</w> 1044
se aled</w> 1043
mi ch 1043
pu mpin</w> 1043
con stru 1043
under cover</w> 1043
g love</w> 1042
j on 1042
co pe</w> 1042
da da</w> 1042
su fri 1042
de fine</w> 1042
lu m</w> 1042
care less</w> 1042
chu ck</w> 1042
ligh ter</w> 1042
deal er</w> 1042
way ne</w> 1042
we it</w> 1041
dou ble 1041
supre me</w> 1041
b woy</w> 1040
pa u 1040
fe male</w> 1040
t. v</w> 1040
wh el 1039
lo in</w> 1039
ho h</w> 1039
bo d 1039
de ba 1039
man do</w> 1039
chron ic</w> 1039
c å 1038
j unk</w> 1038
fro ze</w> 1038
bra in 1038
mid st</w> 1038
o b</w> 1037
la d</w> 1037
free zing</w> 1037
pun ks</w> 1037
er in</w> 1036
pon y</w> 1036
ï </w> 1035
in te 1035
sen ger</w> 1035
senti mental</w> 1035
ì </w> 1035
pear ls</w> 1035
hospit al</w> 1035
w en</w> 1034
on ic</w> 1034
ta m 1034
ga thered</w> 1034
fi er 1034
fi esta</w> 1034
brea thin</w> 1034
bal ling</w> 1034
ì </w> 1034
are a</w> 1034
a vi 1033
b ber 1033
so - 1033
g it</w> 1032
ma ã± 1032
ri r</w> 1032
fi c</w> 1032
free way</w> 1032
tar de</w> 1032
n ana</w> 1031
ri di 1031
bit s</w> 1031
gli mp 1031
r ts</w> 1030
a y- 1030
f lie 1030
lo yal</w> 1030
ri sa</w> 1030
nar row</w> 1030
s day</w> 1029
a partment</w> 1029
ph ony</w> 1029
buil dings</w> 1029
x in</w> 1028
an i</w> 1028
ro ot</w> 1028
ne ol</w> 1028
good byes</w> 1028
komm en</w> 1028
pear l</w> 1028
gif ts</w> 1028
e ga 1027
d le 1027
d ã¼ 1027
ci as</w> 1027
chi lls</w> 1027
divi ded</w> 1027
corre ct</w> 1027
atlan ta</w> 1027
2 5</w> 1026
ì  1026
pre fer</w> 1026
fuck ers</w> 1026
surr ounds</w> 1026
ff ing</w> 1025
pu mping</w> 1024
tri ll</w> 1024
im it 1024
mr s.</w> 1024
tter ing</w> 1024
wee ping</w> 1023
me ssi 1022
mor gen</w> 1022
cla y</w> 1022
b la</w> 1021
an n</w> 1021
lea ders</w> 1021
ab y 1021
tu mbling</w> 1021
cha pter</w> 1021
ka u</w> 1021
ban ging</w> 1021
mur da</w> 1021
ha l</w> 1020
le x</w> 1020
jud gment</w> 1020
me inen</w> 1019
dan ce 1019
vie ws</w> 1019
la dder</w> 1018
mor ir</w> 1018
sk i</w> 1018
ã© m</w> 1018
li sa</w> 1017
su ckin</w> 1017
sta ble</w> 1017
mb les</w> 1017
tear drops</w> 1017
glu e</w> 1017
indi an</w> 1016
su bli 1015
el vis</w> 1015
vi ve</w> 1015
fr ente</w> 1015
ã¼ ck</w> 1015
scri pt</w> 1015
obse ssion</w> 1015
ee - 1014
me er</w> 1014
def ea 1014
grin ding</w> 1014
camer as</w> 1014
s ã¬</w> 1013
ì  1013
yo r</w> 1013
in i</w> 1013
un true</w> 1013
ver ste 1013
pre mi 1013
life style</w> 1013
reinde er</w> 1013
c ã³ 1012
wa s 1012
ma u 1012
ca mp 1012
lea sh</w> 1012
au f 1012
s coo 1011
so mb 1011
me i 1011
le gi 1011
pa vement</w> 1011
ru ssi 1011
bar a</w> 1011
sn it 1011
jer sey</w> 1011
í ´</w> 1011
thug gin</w> 1011
tempera ture</w> 1011
de us</w> 1010
pr int</w> 1010
disp lay</w> 1010
parano id</w> 1010
awe some</w> 1010
sha ky</w> 1009
peop les</w> 1009
smi lin</w> 1009
coa ster</w> 1009
fon d</w> 1009
u mb 1008
so ar</w> 1008
pro ps</w> 1008
gra sp</w> 1008
tou chin</w> 1008
slee py</w> 1008
dyna mite</w> 1008
ju ke 1007
pen sa 1007
wha ck</w> 1007
she pher 1007
la be 1006
fu ry</w> 1006
car a 1006
temp or 1006
soli tude</w> 1006
i ri 1005
î º 1005
com pa 1005
qui eras</w> 1005
cri m 1005
ye p</w> 1005
reali se</w> 1005
chemi cal</w> 1005
app ears</w> 1004
apri l</w> 1004
v ale</w> 1003
l u</w> 1003
li cht</w> 1003
so ir</w> 1003
le tz 1003
qu en 1003
mm en</w> 1002
nu m</w> 1002
ir u</w> 1002
ama zed</w> 1002
home boy</w> 1002
blan ket</w> 1002
ì </w> 1002
th under 1001
un it</w> 1001
su bur 1001
we et</w> 1001
clo wns</w> 1001
il er</w> 1001
fl ee 1001
dire ctions</w> 1001
batt les</w> 1001
ë ¡ 1000
fri ed</w> 1000
k ka</w> 999
2 1</w> 999
no wa 999
to ward</w> 999
gu e 999
tun es</w> 999
bi os</w> 998
mira cles</w> 998
conte m 998
n ou 997
ë  997
re su 996
pene tra 996
ë  995
re je 995
su a</w> 995
fu r</w> 995
pro fit</w> 995
jo bs</w> 995
magi cal</w> 995
exe cu 995
z ard</w> 994
en ten 994
bo ats</w> 994
it ing</w> 993
me dit 993
ter a</w> 993
lan ge</w> 993
dece ive</w> 993
g ly</w> 992
ha us</w> 992
ki r 992
cu lar</w> 992
butter flies</w> 992
too ls</w> 992
relation ship</w> 992
it su 991
ro ll 991
vi ctor 991
fla sh 991
s ant</w> 990
se less</w> 990
ser ã¡</w> 990
bastar ds</w> 990
rab bit</w> 990
t ity</w> 989
p elo</w> 989
se ver 989
su es</w> 989
bal lo 989
phi lo 989
ã¥ r</w> 989
h l 988
i or</w> 988
1 st</w> 988
pa d</w> 988
ton ite</w> 988
che d 988
ein mal</w> 988
o va</w> 987
ll i</w> 987
chi m 987
app eal</w> 987
opportun ity</w> 987
tri ps</w> 986
tter y</w> 986
pain ting</w> 986
a si 985
k ha 985
in crea 985
ro sa</w> 985
un de</w> 985
du sk</w> 985
sl igh 985
clear er</w> 985
power ful</w> 985
re placed</w> 984
fa ctory</w> 984
pro per 984
win ding</w> 984
ãª tre</w> 984
e tt</w> 983
a e</w> 983
emp lo 983
convin ce</w> 983
rail road</w> 983
juke box</w> 983
t s 982
di le</w> 982
ta d</w> 982
bar ri 982
rejo ice</w> 982
sear ched</w> 981
deni al</w> 981
nick el</w> 981
palab ras</w> 981
6 0</w> 980
po ta 980
ac count</w> 980
fr en 980
gen s</w> 980
over whel 980
crim son</w> 980
nowa days</w> 980
se an</w> 979
in e 979
in vin 979
lo u</w> 979
ta mbi 979
ur o</w> 979
ca mp</w> 978
tre mbling</w> 978
zi p</w> 978
s ally</w> 977
r in</w> 977
is ce</w> 977
era sed</w> 977
tambi ã©n</w> 977
v ali 976
k ka 976
p p</w> 976
on de</w> 976
ar row</w> 976
ba it</w> 976
un seen</w> 976
pre - 976
wo mb</w> 976
fuck s</w> 976
repu tation</w> 976
on o</w> 975
chan nel</w> 975
twi sting</w> 975
hearta ches</w> 975
climb ed</w> 975
in si 974
ru mors</w> 974
wer den</w> 974
a ight</w> 973
p ã¥</w> 973
fi ction</w> 973
wan n</w> 973
din ero</w> 973
coo kin</w> 973
quisi era</w> 973
suit case</w> 973
p ine</w> 972
ta sted</w> 972
fu er 972
du ll</w> 972
ve in</w> 972
u en</w> 971
qu el</w> 971
op ens</w> 971
cur b</w> 971
shar k</w> 971
home less</w> 971
k not</w> 970
p har 970
en chan 970
bu ck 970
to ssed</w> 970
tran qui 970
liqu id</w> 970
law yer</w> 970
jur y</w> 970
di ese</w> 969
spi ra 969
shou ting</w> 969
beha vi 969
z t</w> 968
ro cked</w> 968
ver sion</w> 968
ce des</w> 968
nu mb 968
l lu 967
re el 967
be have</w> 967
di an</w> 967
mor n</w> 967
emp e 967
ev' ry 967
l ent</w> 966
z ig 966
ge d 966
ter r 966
stre ssed</w> 966
chea ting</w> 966
deal t</w> 966
an der 965
ca ve</w> 965
mar tin</w> 965
kit ty</w> 965
al gui 964
relea sed</w> 964
pupp et</w> 964
grave yard</w> 964
t ful</w> 963
tru sted</w> 963
pri est</w> 963
disapp oin 963
defin itely</w> 963
silen cio</w> 963
mo o 962
pa ci 962
bla des</w> 962
du ty</w> 962
sal ute</w> 962
re c 961
vi v 961
tu mble</w> 961
sch u 961
dis covered</w> 961
versa ce</w> 961
zoo m</w> 961
hundre ds</w> 961
ch ant</w> 960
ì ´</w> 960
se le 959
le ga 959
sta tes</w> 959
wo e</w> 959
be tcha</w> 958
ex - 958
ac ts</w> 958
fli ck</w> 958
kan nst</w> 958
deu ce</w> 958
progre ss</w> 958
a in 957
p ent</w> 957
no ches</w> 957
de sa 957
for bi 957
ci ble</w> 957
te quila</w> 957
chan gin</w> 957
ear ned</w> 957
answ ered</w> 957
gui ding</w> 957
cap ture</w> 957
bai lando</w> 957
die ser</w> 957
dit ch</w> 957
win s</w> 956
ad dress</w> 956
side walk</w> 956
co - 955
co lu 955
car na 955
hou ston</w> 955
oc chi</w> 955
colo red</w> 955
approa ch</w> 955
algui en</w> 955
ro of 954
mo men 954
de w</w> 954
ban ana</w> 954
r out 953
kee per</w> 953
rememb ering</w> 953
o tic</w> 952
ever s</w> 952
cro ssing</w> 952
ru s</w> 951
mon d</w> 951
sor rows</w> 951
spi der</w> 951
vor bei</w> 951
philo so 951
f ã¶ 950
1 8</w> 950
ro yal</w> 950
di do</w> 950
so w</w> 950
to mb 950
stran ded</w> 950
quie tly</w> 950
de ux</w> 949
sp y</w> 949
mu eve</w> 949
crea ture</w> 949
is sue</w> 949
nine ty- 949
z as</w> 948
pa ssin</w> 948
sti r 948
mu tha</w> 948
str ung</w> 948
flo ss</w> 948
im mortal</w> 948
ã¨ s</w> 948
agu a</w> 948
provi de</w> 948
k oo 947
ca do</w> 947
de fi 947
com men 947
ni ente</w> 947
smi c</w> 947
sme lls</w> 947
ulti mate</w> 947
l one</w> 946
r ust</w> 946
al aba 946
bu sc 946
scar red</w> 946
cer ca</w> 946
nega tive</w> 946
' 9 945
ou ter</w> 945
ma squ 945
star ving</w> 945
bea u</w> 945
ju ana</w> 945
son ne</w> 945
tre mble</w> 945
ima ges</w> 945
qu' un</w> 945
re ign 944
be ans</w> 944
ur i</w> 944
cu ps</w> 944
scri p 944
bu s 943
nig ger</w> 943
star es</w> 943
ll evo</w> 943
ã  943
or g 942
ta pes</w> 942
loo p</w> 942
ex pla 942
phi lly</w> 942
impre ssed</w> 942
ti cs</w> 941
ta x</w> 941
te u</w> 941
pre ssed</w> 941
je den</w> 941
g- a- 941
reve lation</w> 941
jel ly</w> 941
ca ble</w> 940
lou ie</w> 940
deal in</w> 940
k no</w> 939
ra us</w> 939
di - 939
ga mb 939
magaz ines</w> 939
ã ® 938
ro deo</w> 938
fel low</w> 938
no ve 937
ca tchin</w> 937
for ms</w> 937
pro ject</w> 937
savi our</w> 937
sa ddle</w> 936
hu n</w> 936
eng land</w> 936
versa l</w> 936
attra ction</w> 936
rememb ered</w> 936
introdu ce</w> 936
a pr 935
dest ined</w> 935
fo e</w> 935
ra ci 934
sp r 934
con ci 934
gra ms</w> 934
lan ded</w> 934
screa med</w> 934
fo es</w> 934
bre w</w> 934
t its</w> 933
m t</w> 932
u t 932
vi en 932
ph s</w> 932
chee ks</w> 932
consu me</w> 932
tigh ter</w> 932
d ition</w> 931
li bre</w> 931
si on 931
we igh 931
vo or</w> 931
end lessly</w> 931
mur dered</w> 931
oo ps</w> 930
four - 930
lim its</w> 930
a tr 929
ë  929
pa pi</w> 929
cha sed</w> 929
swi ft</w> 929
a mor 928
ch ur 928
ha tes</w> 928
mon o</w> 928
es con 928
hun ter</w> 928
t down</w> 927
f right</w> 927
in n</w> 927
ca m</w> 927
de inen</w> 927
cau sing</w> 927
wa e</w> 926
sh its</w> 926
fi cial</w> 926
ru ff</w> 926
inv ited</w> 926
k op 925
ti ming</w> 925
ch as</w> 925
fee ds</w> 925
s nu 924
ê ± 924
ë © 924
th ree 924
ru by</w> 924
ad ven 924
back seat</w> 924
worl d 924
infin ite</w> 924
a de 923
an ta</w> 923
sil ently</w> 923
pig s</w> 923
infin ity</w> 923
offi cial</w> 923
su cked</w> 922
hear in</w> 922
ci endo</w> 922
li ons</w> 921
mu ss</w> 921
gra n</w> 921
mou ths</w> 921
d chen</w> 920
ã </w> 920
x ie</w> 920
dis co 920
spea kin</w> 920
inter est</w> 919
mour n</w> 919
gloo m</w> 919
f ry</w> 918
al tar</w> 918
go o</w> 918
tal i 918
mar ty 918
ë ´</w> 918
finger tips</w> 918
encontra r</w> 918
j al 917
pa thetic</w> 917
tri ump 917
mou se</w> 917
slu g</w> 917
lif ting</w> 917
sue ã±o</w> 917
l ala</w> 916
com man 916
sha ck</w> 916
ke iner</w> 916
stan dar 916
abo ard</w> 916
j d</w> 915
ca ting</w> 915
sil k</w> 915
ê°  915
r oug 914
ra m</w> 914
op ening</w> 914
str o</w> 914
out law</w> 914
ask s</w> 914
chea ted</w> 914
suck a</w> 914
pa ths</w> 913
dri ed</w> 913
thu mb</w> 913
shir ts</w> 913
i ds</w> 912
ra is</w> 912
he ut</w> 912
wea ve</w> 912
thor ns</w> 912
necess ary</w> 912
invin cible</w> 912
tru cks</w> 911
side ways</w> 911
a ta</w> 910
ma m</w> 910
su el 910
desp ise</w> 910
a dam</w> 909
2 2</w> 909
ï ¼ 909
ro wed</w> 909
per cent</w> 909
ã  909
habla r</w> 909
glimp se</w> 909
forbi dden</w> 909
e p 908
ne o</w> 908
po ver 908
ar io</w> 907
car ni 907
writ er</w> 907
coo king</w> 907
indepen dent</w> 907
h eri 906
r ant</w> 906
com mit</w> 906
com pren 906
ll ' 906
fo x 906
back yard</w> 906
diffi cult</w> 906
s ine</w> 905
no mbre</w> 905
ma dre</w> 905
bu ff 905
ge ous</w> 905
pi a</w> 905
dream t</w> 905
villa ge</w> 905
h end</w> 904
g led</w> 904
- moi</w> 904
bar k</w> 904
encuen tro</w> 904
y zie</w> 903
th ed</w> 903
in tro</w> 903
ha ha 903
me mber</w> 903
der a</w> 903
du ele</w> 903
mista ken</w> 903
criti ci 903
intel lig 903
d n</w> 902
ta i</w> 902
lea gue</w> 902
maã± ana</w> 902
u re 901
a da 901
for ma</w> 901
san c 901
stre tched</w> 901
opp re 901
mode ls</w> 901
v ance</w> 900
li mbs</w> 900
la ys</w> 900
me ga</w> 900
dee ds</w> 900
re turned</w> 899
mo ld</w> 899
po ten 899
shi i</w> 899
ena de</w> 899
a ta 898
an ni 898
ro ver</w> 898
ha ir 898
do d 898
sl it</w> 898
dark ened</w> 898
in divi 897
n' est</w> 897
my sti 897
hon ky</w> 897
jewel ry</w> 897
ana ta</w> 897
tax i</w> 897
s words</w> 896
ã ¸ 896
ign ite</w> 896
ri age</w> 896
civi li 896
challen ge</w> 896
a to 895
ver so</w> 895
lin ed</w> 895
san a</w> 895
mer cedes</w> 895
a des 894
ma g</w> 894
ra ttle</w> 894
sha tter</w> 894
ali ce</w> 894
fli rt</w> 894
zz o</w> 894
foun tain</w> 894
compu ter</w> 894
un holy</w> 893
zi jn</w> 893
ades so</w> 893
go ssi 892
di va</w> 892
fun ction</w> 892
cen ts</w> 892
gang stas</w> 892
wed nes 892
er e 891
ra tt 891
sta te 891
per pe 891
coun ts</w> 891
app et 891
stri ctly</w> 891
survi ved</w> 891
yon der</w> 891
guit ars</w> 891
wei ã</w> 891
perdi do</w> 891
nae ga</w> 891
messi ah</w> 891
l é 890
ar gue</w> 890
no g</w> 890
wa gon</w> 890
di stor 890
mo t</w> 890
ther e 890
blo s 890
stun tin</w> 890
fav our 890
happ enin</w> 889
dra wing</w> 889
stri fe</w> 889
cap tured</w> 889
e sos</w> 888
no things</w> 888
ro bbed</w> 888
de jo</w> 888
sch ne 888
ste ht</w> 888
im pa 888
over time</w> 888
j' suis</w> 888
pur se</w> 888
kan e</w> 888
possi bly</w> 888
mag ni 888
depre ssion</w> 888
wh a</w> 887
un ity</w> 887
pla gue</w> 887
pi lot</w> 887
suc ceed</w> 887
concer n</w> 887
g all 886
f red</w> 886
in te</w> 886
co ward</w> 886
bo w 886
pa ckin</w> 886
uni versal</w> 886
emb arra 886
foot ball</w> 886
ch ten</w> 885
cond ition</w> 885
paraly zed</w> 885
in in</w> 884
en tra 884
sh ment</w> 884
un wind</w> 884
pa sar</w> 884
con clu 884
man u 884
lor ds</w> 884
pare ce</w> 884
favour ite</w> 884
me ul</w> 883
high - 883
eigh teen</w> 883
defea ted</w> 883
rout ine</w> 883
so ã± 882
lu cy</w> 882
sno op</w> 882
follo ws</w> 882
la ced</w> 881
gal ax 881
vuel vo</w> 881
yi pp 881
amig os</w> 881
ri ver 880
pp en</w> 880
han gs</w> 880
vir gin 880
er n</w> 879
ga ined</w> 879
gu erra</w> 879
ali bi</w> 879
lle gar</w> 879
design er</w> 879
j it 878
ma id</w> 878
god dess</w> 878
mo bile</w> 877
chi ca</w> 877
ve lo 877
ber lin</w> 877
d ka</w> 876
thir teen</w> 876
m ã­a</w> 875
k ling</w> 875
pa cking</w> 875
mor al</w> 875
convin ced</w> 875
z en 874
bi llion</w> 874
aman e 874
opin ion</w> 874
ri ce</w> 873
mi j</w> 873
per si 873
politi cs</w> 873
absolu tely</w> 873
mist le 873
crun k</w> 873
a dren 872
la bios</w> 872
mon sters</w> 872
gla dly</w> 872
uni que</w> 872
c un 871
ang st</w> 871
spe ct</w> 871
pal ace</w> 871
shit tin</w> 871
wron gs</w> 871
chim ney</w> 871
commit ted</w> 870
i den 869
ne ck 869
sp ins</w> 869
tal ent</w> 869
he h</w> 869
cre o</w> 869
imp er 869
desper ation</w> 869
bulle t 869
ea u</w> 868
st ride</w> 868
sh ri 868
vi su 868
bron x</w> 868
k les</w> 867
par ole</w> 867
tu be</w> 867
he ights</w> 867
pen sando</w> 867
crow ds</w> 867
p ours</w> 866
ar on</w> 866
ri co</w> 866
wi ser</w> 866
pu erto</w> 866
tra y</w> 866
temp t</w> 866
cabe za</w> 866
m ã© 865
st roll</w> 865
lo g</w> 865
ho st</w> 864
ri ck</w> 864
si mi 864
ac cu 864
nece sito</w> 864
obli vi 864
into xi 864
ä ¸ 863
lo o</w> 863
pa cks</w> 863
par ked</w> 863
dra u 863
ski rts</w> 863
ligh ting</w> 863
rar i</w> 863
t win</w> 862
ca de</w> 862
at i</w> 862
awa its</w> 862
t ang</w> 861
to mmy</w> 861
ste ve</w> 861
shor es</w> 861
cul ous</w> 861
h ã¤ 860
m ero</w> 860
c row</w> 860
ar mor</w> 860
wa stin</w> 860
co la</w> 860
mo tel</w> 860
pa sado</w> 860
pre va 860
mm ers</w> 860
dev i 860
sar ang 860
cå ur</w> 860
ti al</w> 859
ba ke</w> 859
com pr 859
ce tte</w> 859
ben e 859
sea ms</w> 859
ð ½ 858
au thor 858
gro w 858
spi el 858
amb ition</w> 858
wa ta 857
co cked</w> 857
de la</w> 857
sti ff</w> 857
hu mp</w> 857
mm t</w> 857
hun ting</w> 857
hor ny</w> 857
app ro 857
ban a</w> 857
mi - 856
ssi e</w> 856
natur ally</w> 856
masqu era 856
s kill</w> 855
a tic</w> 855
cal y 855
dra gging</w> 855
dedi cated</w> 855
kor o</w> 855
ma ta 854
whi ppin</w> 854
str a</w> 854
ja ded</w> 854
nu clear</w> 854
bri lli 854
disa gree</w> 854
six ty</w> 854
wednes day</w> 854
th at 853
ne gle 853
ka u 853
rai sing</w> 853
how ling</w> 853
gior no</w> 853
busc ando</w> 853
mu ddy</w> 852
e scri 851
a do 851
se ul</w> 851
ea ts</w> 851
no el</w> 851
ca ses</w> 851
si amo</w> 851
ga ta</w> 851
jam min</w> 851
li er</w> 850
ad vance</w> 850
sau ce</w> 850
inse cure</w> 850
mistle toe</w> 850
ar ran 849
ca tions</w> 849
re born</w> 849
bo ards</w> 849
mo stly</w> 849
supp ly</w> 849
o' er</w> 849
s ã¥</w> 848
u pper</w> 848
ri pping</w> 848
ru ins</w> 848
an ch 847
har ry</w> 847
vo is</w> 847
ax e</w> 847
g u</w> 846
th ea 846
pa ins</w> 846
con qu 846
cra shed</w> 846
sch we 846
ben e</w> 846
tan ce</w> 846
s lo</w> 845
z wei</w> 845
x 4</w> 845
do ctors</w> 845
de te 845
wan tin</w> 845
aby ss</w> 845
co eur</w> 844
val ent 844
n ena</w> 843
i ced</w> 843
un happy</w> 843
ru sty</w> 843
sin o</w> 843
lan es</w> 843
cor a 843
cor o</w> 843
au di 843
jud gement</w> 843
ful fill</w> 843
sett led</w> 843
a un</w> 842
' ne</w> 842
ca ps</w> 842
ra ped</w> 842
mo ts</w> 842
ex pli 842
min i</w> 842
sin cer 841
homi cide</w> 841
inspi red</w> 841
bullet proof</w> 841
se ize</w> 840
je ff</w> 840
tor tured</w> 840
trea ting</w> 840
g ton</w> 839
j - 839
ì  839
on - 839
ro bin</w> 839
me inem</w> 839
tou ches</w> 839
oc ca 839
yel lin</w> 839
ple a</w> 839
enti re</w> 839
uh- uh</w> 839
qua ke</w> 839
sole il</w> 839
j eep</w> 838
it al</w> 838
be thle 838
da ze</w> 838
sw el 838
vol ver 838
in flu 837
ra dar</w> 837
da e</w> 837
mp le</w> 837
sch rei 837
den ying</w> 837
end re</w> 837
twer k</w> 837
double - 837
oblivi on</w> 837
g gi 836
g ent</w> 836
an nie</w> 836
mp y</w> 836
flo wn</w> 836
strug gling</w> 836
tit ties</w> 836
soa p</w> 836
blei bt</w> 836
î ¬ 835
bu ena</w> 835
si m 835
ge ld</w> 835
flo win</w> 835
glo cks</w> 835
bon nie</w> 835
presen ts</w> 835
compre hend</w> 835
ri sin</w> 834
per su 834
rear range</w> 834
wa shing</w> 833
gar age</w> 833
fli pped</w> 833
d- d- 833
awa k 833
like ly</w> 833
th us</w> 832
re tar 832
ra ck</w> 832
le gal</w> 832
con dem 832
my steri 832
dep ends</w> 832
esta mos</w> 832
d d</w> 831
ru mble</w> 831
com b</w> 831
na p</w> 831
bethle hem</w> 831
che z</w> 830
stri pped</w> 830
thri lls</w> 830
six - 830
h are</w> 829
k un</w> 829
sa ils</w> 829
di bby</w> 829
ke - 829
is sues</w> 829
dign ity</w> 829
bu eno</w> 828
so la 828
mi da</w> 828
de signed</w> 828
po o 828
dan ces</w> 828
har vest</w> 828
car ved</w> 828
ã¼ r 828
broad way</w> 828
ti des</w> 827
ri da</w> 827
ur y</w> 827
ge no 827
vo dka</w> 827
reve aled</w> 827
mon a</w> 826
spa ce 826
gun na</w> 826
rain bows</w> 826
fui ste</w> 826
al ot</w> 825
re turning</w> 825
ne cks</w> 825
de lla</w> 825
for ty- 825
plea sed</w> 825
bal ler</w> 825
jun kie</w> 825
scre wed</w> 825
sai lor</w> 825
3 - 824
ë ª 824
al as</w> 824
pa yin</w> 824
po et</w> 824
ver ses</w> 824
fe e</w> 824
blee ds</w> 824
z el</w> 823
or ders</w> 823
en dure</w> 823
po sse</w> 823
chi c</w> 823
ce ption</w> 823
iti ons</w> 823
chemi stry</w> 823
colla pse</w> 823
maje sty</w> 823
thur sday</w> 823
ched dar</w> 823
d wel 822
bu ggin</w> 822
ri ppin</w> 822
pu zzle</w> 822
glo be</w> 822
sign al</w> 822
back ground</w> 822
remin isce</w> 822
they re</w> 822
n n 821
c u</w> 821
u n' 821
r y- 821
er ror</w> 821
bra g</w> 821
bal l 821
emer gency</w> 821
world wide</w> 821
valent ine</w> 821
n . 820
m mi</w> 820
la i 820
mir o</w> 820
cin der 820
betra y</w> 820
inv ite</w> 820
histor ia</w> 820
sa gen</w> 819
sy ste 819
vu oi</w> 819
motha fuckin</w> 819
e k 818
sh eri 818
ma e</w> 818
pi o</w> 818
posse ss</w> 818
s igh 817
ton k</w> 817
sen sit 817
lon gest</w> 817
g- g- 817
mag ne 817
heal thy</w> 817
wir k 817
regga e</w> 817
lo sers</w> 816
me less</w> 816
to k 816
bo thered</w> 816
de lu 816
tur n 816
coun ter</w> 816
life less</w> 816
ë ´ 816
ox y 816
indivi du 816
or o</w> 815
ca fe</w> 815
si cht</w> 815
fu erte</w> 815
tu b</w> 815
ten erte</w> 815
glo ria</w> 815
fea thers</w> 815
edu cation</w> 815
d é 814
vi va</w> 814
sen s</w> 814
che cked</w> 814
sang re</w> 814
al ine</w> 813
mb er 813
he y- 813
ste in</w> 813
stra igh 813
watch es</w> 813
stri pes</w> 813
fanta stic</w> 813
head lights</w> 813
frustra tion</w> 813
ñ  812
re gal 812
foo lin</w> 812
crui sin</w> 812
lega cy</w> 812
' er</w> 811
re mo 811
ho ttest</w> 811
ee e</w> 811
mo ses</w> 811
woo den</w> 811
wil d 811
pee ps</w> 811
gu est</w> 810
bi zar 810
ã  810
play boy</w> 810
appet ite</w> 810
li ver</w> 809
wor m</w> 809
pla tes</w> 809
hi l 809
ja ws</w> 809
flo ors</w> 809
twi r 809
pan e</w> 809
cross roads</w> 809
re ppin</w> 808
ha ts</w> 808
ha ut</w> 808
fa king</w> 808
stri ve</w> 808
t- shirt</w> 808
ein er</w> 808
doo med</w> 808
ma sters</w> 807
re sta 807
pa th 807
ur ge</w> 807
flo ck</w> 807
cho s</w> 807
it ali 806
re move</w> 806
ver ge 806
lan te</w> 806
ein em</w> 806
black ened</w> 806
pou red</w> 806
ti ves</w> 805
be tty</w> 805
par ar</w> 805
zi e 805
expen sive</w> 805
mon i 804
dra gged</w> 804
bra ke</w> 804
cr is</w> 804
uu uu 804
yy yy 804
ja pan</w> 803
ag gre 803
t' es</w> 803
pho to</w> 803
me nos</w> 802
sen ds</w> 802
mar ie</w> 802
pr onto</w> 802
inter est 802
a pren 801
ri o 801
rea per</w> 801
ex amp 801
fr a</w> 801
sol ved</w> 801
swea ter</w> 801
apologi es</w> 801
it en</w> 800
ro tting</w> 800
la mp</w> 800
da g</w> 800
tou ch 800
bra zos</w> 800
fai ls</w> 800
h le</w> 799
j an</w> 799
no w 799
ma m 799
me lo</w> 799
pi ck 799
son ic</w> 799
lla ma</w> 799
esp ero</w> 799
elev ator</w> 799
p re</w> 798
en contr 798
per for 798
sou p</w> 798
hor ri 798
heart less</w> 798
pover ty</w> 798
e op 797
mi ckey</w> 797
vi ll</w> 797
vi ens</w> 797
can non</w> 797
exi ste</w> 797
rit mo</w> 797
c .</w> 796
no ose</w> 796
ther a 796
swi r 796
ã  796
addi ct</w> 796
sai led</w> 796
ø§ ù 796
v ors</w> 795
, 000</w> 795
bea n</w> 795
sch war 795
up stairs</w> 795
no tion</w> 794
so ll</w> 794
me iner</w> 794
pro ph 794
disapp ears</w> 794
trea ts</w> 794
volu me</w> 794
o ma</w> 793
a g</w> 793
p one</w> 793
li me</w> 793
co wards</w> 793
do lla</w> 793
some things</w> 793
con tra</w> 793
mean while</w> 793
fran k 793
soa ked</w> 793
p ses</w> 792
sh er 792
do es 792
tru mp 792
explo re</w> 792
h ö 791
li ars</w> 791
est - 791
haun ts</w> 791
perman ent</w> 791
ß t</w> 790
lean ing</w> 790
eg gs</w> 790
cup id</w> 790
en jo 789
ma chen</w> 789
re hear 789
t- t- 789
atta ched</w> 789
aqu el</w> 789
foun dation</w> 789
î¿ ï</w> 789
h eel</w> 788
k night</w> 788
ev ol 788
bo ar 788
pre dic 788
end lich</w> 788
frea kin</w> 788
daw ning</w> 788
spen din</w> 788
in clu 787
tr ä 787
fi ddle</w> 787
nee dles</w> 787
wre cked</w> 787
leg it</w> 787
tit le</w> 787
s ly</w> 786
t are</w> 786
wa i 786
ra m 786
ru gged</w> 786
ger y</w> 786
cen tu 786
thor n</w> 786
hesit ation</w> 786
regar dless</w> 786
acci dent</w> 786
x ing</w> 785
li mou 785
no tte</w> 785
fa ul 785
ver t</w> 785
per chã©</w> 785
ser pent</w> 785
defin ition</w> 785
afri can</w> 785
proph et</w> 785
c en</w> 784
ë ¶ 784
ch it 784
su ga</w> 784
dea d 784
gli tter</w> 784
ah- ah- 784
remin i 784
clai med</w> 784
a my</w> 783
k k</w> 783
wh ine</w> 783
la tin</w> 783
hol ly</w> 783
ë ¤ 783
u u</w> 782
fe u 782
ille st</w> 782
depre ssed</w> 782
kel ly</w> 782
viel leicht</w> 782
w ur 781
th al</w> 781
pp er 781
pu n</w> 781
re ward</w> 780
any how</w> 780
den k</w> 780
i- i</w> 780
arri ba</w> 780
fon do</w> 780
ignor ant</w> 780
k ite</w> 779
ar u</w> 779
t wit 778
ge u</w> 778
ex plan 778
nu thin</w> 778
cre ws</w> 778
por sche</w> 778
aa a</w> 778
make up</w> 778
gues sing</w> 778
î ­ 777
re treat</w> 777
me ter 777
ta sk</w> 777
ru ined</w> 777
sta ir 777
bit ty</w> 777
dri ll</w> 777
ka r</w> 777
comp an 777
d' amour</w> 777
refle ct</w> 777
o a 776
y a- 776
bi ll 776
mp a</w> 776
ex posed</w> 776
can o</w> 776
ar a 775
ba pti 775
to ki</w> 775
le o</w> 775
de als</w> 775
stan te</w> 775
nin ety</w> 775
z in 774
x 3</w> 774
al ors</w> 774
mi sty</w> 774
fli r 774
confe ssion</w> 774
gi o 773
cor n 773
dev a 773
dee ply</w> 773
cree k</w> 773
od d</w> 773
abu sed</w> 773
esper ando</w> 773
close st</w> 773
drun ken</w> 773
e ig 772
j uni 772
ì  772
ev ing</w> 772
hi pp 772
pe dal</w> 772
ug h</w> 772
ali en</w> 772
fai ling</w> 772
travel in</w> 772
a far</w> 771
go wn</w> 771
su cht</w> 771
pa ss 771
bi j</w> 771
we ve</w> 771
pre tti 771
char ac 771
dece ption</w> 771
masquera de</w> 771
sheri ff</w> 771
v s</w> 770
a tra 770
re pla 770
go tcha</w> 770
ve nom</w> 770
fol ds</w> 770
esca ping</w> 770
chea tin</w> 770
esc al 770
offer ing</w> 770
gau ge</w> 770
v ari 769
al ala</w> 769
cu al 769
pe ut</w> 769
cra ving</w> 769
sou ven 769
dev elo 769
wri sts</w> 769
criti cal</w> 769
g ã¼ 768
se gun 768
el and</w> 768
star ed</w> 768
star ry</w> 768
win k</w> 768
apo s</w> 768
chal k</w> 768
r ando</w> 767
j en</w> 767
ro c</w> 767
ca ddy</w> 767
co smic</w> 767
du mmy</w> 767
ã  767
enter tain 767
ã t</w> 767
d h</w> 766
' neath</w> 766
ge f 766
clu tch</w> 766
spi lled</w> 766
spar kle</w> 766
19 9 766
dimen sion</w> 766
k am 765
li s</w> 765
mon s</w> 765
gra ph</w> 765
ã¤ r 765
blin ds</w> 765
ì ¬ 765
cã³ mo</w> 765
o la</w> 764
g lin</w> 764
a id</w> 764
ba m 764
hea din</w> 764
com passion</w> 764
pi pes</w> 764
cra ft</w> 764
oppo site</w> 764
ma ssa 763
le ment</w> 763
qu in 763
sp el</w> 763
tu tti</w> 763
bor rowed</w> 763
ban k 763
hen ny</w> 763
chin ese</w> 763
invit ation</w> 763
ð ´ 762
pa wn</w> 762
men tally</w> 762
ss up</w> 762
van ity</w> 762
a te 761
ga mble</w> 761
fi a</w> 761
fr o</w> 761
sla sh</w> 761
politi cians</w> 761
quel lo</w> 761
tempor ary</w> 761
g h</w> 760
st all</w> 760
mo le 760
tor ment</w> 760
gli de</w> 760
desp u 760
n na</w> 759
ar ed</w> 759
re l 759
bu yin</w> 759
co in</w> 759
ba dly</w> 759
su rd</w> 759
bit te</w> 759
im po 759
aaaa aaaa 759
carol ina</w> 759
wata shi</w> 759
i hm</w> 758
su erte</w> 758
we igh</w> 758
ter ra</w> 758
can dle 758
real m</w> 758
py ra 758
gn ant</w> 758
row dy</w> 758
z el 757
ri ders</w> 757
fa int</w> 757
pu s</w> 757
thou se</w> 757
igno red</w> 757
h len</w> 756
ã </w> 756
ar es</w> 756
li mb</w> 756
en ai</w> 756
ti m</w> 756
to wns</w> 756
pa ssa 756
fe l</w> 756
swa gger</w> 756
logi c</w> 756
an as</w> 755
wa kes</w> 755
bi zzy</w> 755
ju ste</w> 755
offer ed</w> 755
o ther 754
f ling</w> 754
di xie</w> 754
to x 754
hi ci 754
mon tana</w> 754
bla zin</w> 754
ar rest</w> 753
li k 753
si do</w> 753
sti cking</w> 753
sel bst</w> 753
bea t 753
spo il</w> 753
gossi p</w> 753
re sting</w> 752
re quest</w> 752
ll eva</w> 752
va ted</w> 752
grea se</w> 752
yu me</w> 752
h ers</w> 751
a mos</w> 751
re el</w> 751
sit ion</w> 751
sse o</w> 751
hall way</w> 751
n it</w> 750
s mu 750
ñ  750
er st</w> 750
ar se</w> 750
re y</w> 750
ver da 750
vo lar</w> 750
tch u</w> 750
ser vin</w> 750
dra wers</w> 750
lle go</w> 750
g ne</w> 749
li fel 749
bit ing</w> 749
is m</w> 749
vin o</w> 749
human s</w> 749
spli ff</w> 749
centra l</w> 749
advan tage</w> 749
t itude</w> 748
f lin 748
ch el 748
be ck 748
pro gram</w> 748
dri ppin</w> 748
cr an 748
cer e 748
awa ken</w> 748
e ighty</w> 747
i ci</w> 747
cra ckin</w> 747
logi cal</w> 747
fair y 747
l ee 746
li ch 746
ch mal</w> 746
ta a</w> 746
kan sas</w> 746
nur se</w> 746
henne ssy</w> 746
despu ã©s</w> 746
ã  745
er i</w> 745
ti ckets</w> 745
bo m 745
man era</w> 745
cru shing</w> 745
surr ounding</w> 745
bizar re</w> 745
c unt</w> 744
ë  744
si ente</w> 744
mo e</w> 744
flo atin</w> 744
stra w 744
plan ets</w> 744
val le 744
consu med</w> 744
hypo cr 744
squi r 744
a gar 743
ba sed</w> 743
to wers</w> 743
de le 743
na vig 743
sch ã¶ 743
na tive</w> 742
lie bt</w> 742
fr ig 742
sor s</w> 742
dis cip 742
plan ted</w> 742
luci fer</w> 742
la sci 741
me chan 741
ta gs</w> 741
mi jn</w> 741
com bin 741
ll en 741
du ke</w> 741
dru mmer</w> 741
sub ject</w> 741
........ ........ 741
mari juana</w> 741
door way</w> 741
j r 740
vi er</w> 740
tu cked</w> 740
boo ze</w> 740
fo i</w> 740
sma shed</w> 740
reg ard</w> 740
iden tity</w> 740
w ä 739
' 8 739
1 7</w> 739
al lah</w> 739
ne or 739
ci do</w> 739
bea rs</w> 739
cha mber</w> 739
her b</w> 739
val ue</w> 739
woo - 739
poin ting</w> 739
deu t 739
mu la</w> 738
tur nt</w> 738
kno cks</w> 738
sch a 738
que dar 738
mer ci 738
him mel</w> 738
mani pu 738
alal alal 738
corpor ate</w> 738
o bl 737
le mon</w> 737
tr end</w> 737
vi sto</w> 737
flo p</w> 737
ste alin</w> 737
stor es</w> 737
cho o</w> 737
cy ni 737
olvi do</w> 737
sue ã±os</w> 737
posse ssed</w> 737
r honda</w> 736
se cure</w> 736
no o 736
en ie</w> 736
sh r 736
di to</w> 736
ga thering</w> 736
na ive</w> 736
ab surd</w> 736
pi mps</w> 736
han g 736
fl y 736
survi vor</w> 736
gui sh</w> 736
dire ct</w> 736
lux ury</w> 736
c ough</w> 735
b ong</w> 735
ma tes</w> 735
ch st</w> 735
co sã¬</w> 735
do u</w> 735
mo an 735
fa u 735
pu ffin</w> 735
bla sp 735
ste er</w> 735
est u 735
au tre</w> 735
l' amore</w> 735
ma ine</w> 734
ti d</w> 734
hel l 734
tea chers</w> 734
cele br 734
centu ries</w> 734
sh ita</w> 733
un ter 733
am arte</w> 733
cha in 733
cinder ella</w> 733
ba u 732
da ted</w> 732
du h</w> 732
fla ws</w> 732
sug gest</w> 732
.i. p</w> 732
pa ved</w> 731
na ka</w> 731
gentle man</w> 731
popu lar</w> 731
umb re 731
s ighs</w> 730
qu anto</w> 730
fa bri 730
wal tz</w> 730
coun ted</w> 730
sla pped</w> 730
hust lers</w> 730
aw w</w> 730
raz ã³n</w> 730
z- vous</w> 730
achi eve</w> 730
alaba ma</w> 730
j in</w> 729
no va</w> 729
sh rin 729
bu ms</w> 729
ge ta 729
melo dies</w> 729
base ball</w> 729
in complete</w> 728
the - 728
com a</w> 728
he e</w> 728
fre ight</w> 728
habit s</w> 728
robo t</w> 728
mysteri ous</w> 728
2 3</w> 727
man a</w> 727
wil der 727
m n 726
c c</w> 726
t read</w> 726
ì  726
ra u 726
po sted</w> 726
bi o 726
bra kes</w> 726
f ant</w> 725
ì  725
re li 725
bu mping</w> 725
ho - 725
sta cked</w> 725
wo p</w> 725
bro w 725
can ciã³n</w> 725
ser en 725
yan kee</w> 725
behavi or</w> 725
k as 724
b m</w> 724
pp le</w> 724
po lo</w> 724
mu erte</w> 724
con gre 724
ã© tait</w> 724
ben ch</w> 724
t' aime</w> 724
k re 723
di cks</w> 723
ci u 723
cu late</w> 723
pro ceed</w> 723
passi on 723
eri e</w> 722
app eared</w> 722
home town</w> 722
nuestr a</w> 722
e la 721
g ant</w> 721
li ckin</w> 721
ro am 721
pa tri 721
blu r</w> 721
es pa 721
prai ses</w> 721
e min 720
ho ch</w> 720
sp l 720
per form</w> 720
win nin</w> 720
mira r</w> 720
nin g 720
illu min 720
cow boys</w> 720
villa in</w> 720
whoo p</w> 720
== == 720
tattoo s</w> 720
go at</w> 719
far mer</w> 719
ë </w> 719
quo te</w> 719
' cross</w> 718
' coz</w> 718
ev it 718
ra gs</w> 718
ha zy</w> 718
to ca</w> 718
lu ego</w> 718
pro cess</w> 718
tri ste 718
ce less</w> 718
ph at</w> 718
a ches</w> 717
si ca</w> 717
me g</w> 717
le x 717
mo tto</w> 717
pla ins</w> 717
tra um</w> 717
lie st</w> 717
swea ting</w> 717
na- na</w> 717
n ina</w> 716
pa tch</w> 716
he li 716
can ta</w> 716
cla ck</w> 716
cur l</w> 716
inter net</w> 716
stit ute</w> 716
weit er</w> 716
blasp he 716
v r 715
ea h</w> 715
ma ma 715
ga do</w> 715
mm er 715
pri ma</w> 715
stre ssin</w> 715
bitter sweet</w> 715
expre ssion</w> 715
predic table</w> 715
in ches</w> 714
ne e</w> 714
hi din</w> 714
ser mon</w> 714
por tra 714
ty pical</w> 714
wil low</w> 714
e mi 713
0 - 713
drea d 713
tu t</w> 713
bar e 713
swea tin</w> 713
cea sed</w> 713
o sa 712
o ye</w> 712
an ti</w> 712
ro d</w> 712
ma d 712
bu sting</w> 712
to wel</w> 712
pa tron</w> 712
au s 712
silhou ette</w> 712
su be</w> 711
wel l- 711
thi cker</w> 711
phra se</w> 711
ridi culous</w> 711
n ent</w> 710
s ounding</w> 710
un - 710
fi es</w> 710
sti ckin</w> 710
ph ant</w> 710
hen ry</w> 710
ë </w> 710
cau tion</w> 710
oo- oo- 710
u sted</w> 709
for giving</w> 709
ex ten 709
sli ding</w> 709
app la 709
assi m</w> 709
1 8 708
ou tro</w> 708
co o</w> 708
ha cia</w> 708
dig ital</w> 708
sé n</w> 708
deman ds</w> 708
al ert</w> 707
sp rung</w> 707
con c 707
blu ff</w> 707
vol ta</w> 707
hust ling</w> 707
sof a</w> 707
evo lution</w> 707
matt ress</w> 707
5 th</w> 706
ho wl</w> 706
ri e 706
ne in</w> 706
cla ws</w> 706
ë¡ </w> 706
re ser 705
me ssa 705
pe tty</w> 705
mar ked</w> 705
ber e 705
wre ck 705
fear less</w> 705
ë ¬ 704
al u 704
un real</w> 704
si ren</w> 704
vi bes</w> 704
ali ke</w> 704
cur ve</w> 704
bru ise</w> 704
poin ted</w> 704
grou pie</w> 704
seven th</w> 704
sh al 703
ti a</w> 703
ba c 703
da ve</w> 703
pea k</w> 703
rin gin</w> 703
ã§ o</w> 703
coo kie</w> 703
î µ</w> 702
en ci 702
ca stles</w> 702
di ces</w> 702
ck e 702
con du 702
pe ux</w> 702
stra w</w> 702
ren de 702
respon sible</w> 702
e cli 701
en se</w> 701
ba ba 701
im mor 701
dream ers</w> 701
i-i- i</w> 701
tech no 701
mes mer 701
ë¥ ¼</w> 701
m d</w> 700
un do</w> 700
na u 700
po p 700
jo ined</w> 700
hu i</w> 700
sal em</w> 700
mal es</w> 700
deli cious</w> 700
chick ens</w> 700
resta ur 700
re in 699
bu ckle</w> 699
ho gy</w> 699
ri - 699
mo - 699
son risa</w> 699
gen era 699
swee tness</w> 699
di l</w> 698
un believ 698
qu in</w> 698
sta bbed</w> 698
ve te</w> 698
ger n</w> 698
cruci fied</w> 698
three - 698
m mes</w> 697
an der</w> 697
un lock</w> 697
sp un</w> 697
ab or 697
nar a</w> 697
deal ers</w> 697
mill en 697
spil ling</w> 697
retar ded</w> 697
a pe 696
ë </w> 696
ho u</w> 696
sho cked</w> 696
rain drops</w> 696
slu mber</w> 696
in hale</w> 695
go spel</w> 695
el los</w> 695
ge ol</w> 695
po is</w> 695
mu n</w> 695
sc al 695
ex tin 695
wo hl</w> 695
ju ego</w> 695
sal es</w> 695
col dest</w> 695
capit al</w> 695
green er</w> 695
m tv</w> 694
se - 694
se hr</w> 694
lo yalty</w> 694
en vi 694
le urs</w> 694
com ment</w> 694
tur key</w> 694
flo r</w> 694
dre sses</w> 694
zi one</w> 694
dig as</w> 694
boun dar 694
all ig 694
g us</w> 693
j wo</w> 693
z co</w> 693
ñ  693
be ds</w> 693
sto ck 693
as ses</w> 693
ff i</w> 693
ven go</w> 693
fre d 693
rr rr 693
oxy gen</w> 693
est- ce</w> 693
k as</w> 692
go als</w> 692
fu ll 692
bro w</w> 692
bro ken 692
mani ac</w> 692
decei ving</w> 692
k lar</w> 691
tu ck</w> 691
dea th 691
gr ounds</w> 691
ah ã­</w> 691
e star 690
c ly 690
o on</w> 690
l lie</w> 690
an no 690
re spir 690
ha ar</w> 690
ja me</w> 690
sch ö 690
tan ta</w> 690
beli evers</w> 690
mal o</w> 690
t oug 689
ti fied</w> 689
tra ces</w> 689
he b</w> 689
at ors</w> 689
stea k</w> 689
fli ct</w> 689
mal a</w> 689
wilder ness</w> 689
st ered</w> 688
la mb 688
ki dding</w> 688
op ti 688
cu e</w> 688
cu ttin</w> 688
tri als</w> 688
dig a</w> 688
toi let</w> 688
niem als</w> 688
consequ ence</w> 688
r . 687
wit ne 687
tt e 687
de iner</w> 687
vi p</w> 687
ven to</w> 687
fre i</w> 687
jer u 687
new born</w> 687
cool er</w> 687
i ka 686
ea ger</w> 686
ch en 686
ta h</w> 686
ab raz 686
qui eren</w> 686
girl friends</w> 686
rap ture</w> 686
haw k</w> 686
m .</w> 685
s nor 685
p iti 685
do h</w> 685
ne gro</w> 685
sp re 685
ber g</w> 685
ã³ s</w> 685
over seas</w> 685
west side</w> 685
anch or</w> 685
c tin</w> 684
ro pes</w> 684
ma ka 684
ha ces</w> 684
ba sta</w> 684
le thal</w> 684
meta ph 684
k on</w> 683
k am</w> 683
ð ² 683
wa - 683
brea thless</w> 683
hu mming</w> 683
pen se</w> 683
aw k 683
nine teen</w> 683
e state</w> 682
n r</w> 682
a e 682
k ku 682
z ur</w> 682
ra ces</w> 682
di ab 682
bo ston</w> 682
ru thless</w> 682
vi o</w> 682
uh- oh</w> 682
jur o</w> 682
infe cted</w> 682
extre me</w> 682
wirk lich</w> 682
conc eal</w> 682
p ted</w> 681
ã ¦ 681
ev ed</w> 681
sa h</w> 681
ha ji 681
me lan 681
fi shing</w> 681
bro tha</w> 681
lou isi 681
dre ssing</w> 681
eu ro 681
sci enti 681
.... ...</w> 681
kop f</w> 681
â ¦</w> 680
tr ã¤ 680
fi el</w> 680
mor t</w> 680
min ded</w> 680
hal lo 680
bar n</w> 680
sche mes</w> 680
aban don</w> 680
reign s</w> 680
a gen 679
p out</w> 679
9 0</w> 679
st ling</w> 679
ev a 679
ab sence</w> 679
ve ter 679
i' m- 679
swee tly</w> 679
pet it</w> 679
ã en</w> 679
dedi cate</w> 679
glea m</w> 679
attemp t</w> 679
h or</w> 678
st ench</w> 678
wa stel 678
ro y</w> 678
ri ddle</w> 678
man age</w> 678
he als</w> 678
tro ops</w> 678
van ish</w> 678
nan i</w> 678
h re</w> 677
wi f 677
mi stress</w> 677
lle ga</w> 677
repea ting</w> 677
arma ged 677
remini sc 677
so ck</w> 676
boun cing</w> 676
e h- 675
e cono 675
n eat</w> 675
a mi 675
gi es</w> 675
sti ll 675
vo te</w> 675
sk ate</w> 675
cor ps</w> 675
men ted</w> 675
son ny</w> 675
suck as</w> 675
pas senger</w> 675
rif le</w> 675
l oun 674
r u</w> 674
la d 674
de jar</w> 674
je sse</w> 674
stu mbling</w> 674
musi ca</w> 674
fli p 674
stru t</w> 674
conta gi 674
ro ad 673
so ak</w> 673
cu ffs</w> 673
sto ve</w> 673
fin o</w> 673
comple x</w> 673
ji j</w> 673
fil th</w> 673
she et</w> 673
ì  673
ha- ha- 673
bu dd 672
ri cor 672
da e 672
ru led</w> 672
te - 672
pe ur</w> 672
cha irs</w> 672
glo ves</w> 672
cali ente</w> 672
gor geous</w> 672
summ ers</w> 672
poison ed</w> 672
y en 671
du tch</w> 671
strea ms</w> 671
mea dow</w> 671
nove mber</w> 671
v ant</w> 670
c ture</w> 670
g lan 670
ù  670
li ds</w> 670
da da 670
su red</w> 670
na te</w> 670
po - 670
sc ru 670
jo sep 670
ã  670
butt ons</w> 670
communi cation</w> 670
examp le</w> 670
n ea 669
in i 669
ha y 669
ee m</w> 669
pro mo 669
va st</w> 669
musi cal</w> 669
ko koro</w> 669
ele phant</w> 669
wil dest</w> 669
suc ce 669
fashi oned</w> 669
eg g</w> 669
tox ic</w> 669
al ter 668
on y 668
rea ches</w> 668
pour in</w> 668
geta way</w> 668
wi ves</w> 667
to d</w> 667
to t</w> 667
per don 667
am bu 667
spe cta 667
gro s</w> 667
dis gui 667
thu mp</w> 667
inter national</w> 667
se ine</w> 666
li cense</w> 666
no d</w> 666
wi red</w> 666
pu erta</w> 666
mar ley</w> 666
fla w 666
colle ction</w> 666
assu me</w> 666
sever al</w> 666
o cu 665
r r</w> 665
se ã± 665
no tre</w> 665
ho ho 665
le tt 665
fa kin</w> 665
cur ren 665
shor ts</w> 665
near er</w> 665
entertain ment</w> 665
r itual</w> 664
ã  664
ig an</w> 664
qu et</w> 664
bit es</w> 664
up tight</w> 664
cur rent</w> 664
beg ged</w> 664
fami lies</w> 664
cree ps</w> 664
abi lity</w> 664
basi c</w> 664
instin ct</w> 664
neck lace</w> 664
does nt</w> 664
h é 663
ro e</w> 663
de seo</w> 663
hor as</w> 663
thro ws</w> 663
20 00</w> 663
via gra</w> 663
i ra 662
o ak</w> 662
s laugh 662
an d- 662
pa per 662
ver a</w> 662
whi pped</w> 662
spe c 662
close ly</w> 662
o y</w> 661
l ä 661
w y 661
ar ies</w> 661
wa ge</w> 661
vi sit 661
pe an 661
wal ker</w> 661
per der 661
lon g 661
contro lled</w> 661
bli ck</w> 661
bru tal</w> 661
confu se</w> 661
dur ing</w> 661
j ã¡</w> 660
an ar 660
ea st 660
li cking</w> 660
el les</w> 660
sen seless</w> 660
war en</w> 660
ë ¤</w> 660
carni val</w> 660
louisi ana</w> 660
di jo</w> 659
sla ck</w> 659
def y</w> 659
sar a</w> 659
nin ja</w> 659
care fully</w> 659
brigh test</w> 659
feli ci 659
ow ned</w> 659
swo llen</w> 659
brilli ant</w> 659
audi ence</w> 659
h ä 658
o mo 658
in sides</w> 658
ig a</w> 658
tr u</w> 658
de b 658
bea rd</w> 658
qui to</w> 658
reali dad</w> 658
posse ssion</w> 658
kri e 658
ta tions</w> 657
sha pes</w> 657
char ming</w> 657
lun g</w> 657
play ground</w> 657
emce es</w> 657
armaged don</w> 657
t ã</w> 656
st or</w> 656
sp u 656
na ch 656
sk s</w> 656
bur ger</w> 656
can ni 656
ss or</w> 656
tan te</w> 656
desper ately</w> 656
politi cal</w> 656
j ee 655
no i 655
en ton 655
ma da</w> 655
ma ssive</w> 655
ta is</w> 655
ci sco</w> 655
te x</w> 655
wo ll 655
lin ing</w> 655
dam nation</w> 655
spea ker</w> 655
bru ce</w> 655
20 0 655
sien tes</w> 655
ø ¨ 654
in her 654
ma t 654
ti enen</w> 654
de cor 654
cu a 654
plea sures</w> 654
can tar</w> 654
gur u</w> 654
g ' 653
da v 653
le on</w> 653
ck led</w> 653
que do</w> 653
spa ces</w> 653
apo caly 653
juni or</w> 653
o ke</w> 652
r up</w> 652
la i</w> 652
sa it</w> 652
sp ice</w> 652
hi re</w> 652
dan ny</w> 652
sen to</w> 652
cha u 652
jun tos</w> 652
cel ls</w> 652
esper ar</w> 652
ih re</w> 652
rea din</w> 651
me e</w> 651
te u 651
br ed</w> 651
du e 651
her es</w> 651
exc iting</w> 651
after math</w> 651
av ant</w> 651
pack age</w> 651
se t 650
lo wing</w> 650
di ppin</w> 650
sta dt</w> 650
nig gers</w> 650
har t</w> 650
ali st</w> 650
crea tor</w> 650
compla ining</w> 650
sog no</w> 650
m ä 649
a spe 649
b wa</w> 649
2 4 649
li d</w> 649
ca in</w> 649
to ma</w> 649
de ed</w> 649
dan se</w> 649
bla stin</w> 649
l' en 649
ight - 649
gui ded</w> 649
prote cted</w> 649
19 8 649
ã e</w> 649
hu mp 648
don ald</w> 648
temp er</w> 648
inten tion</w> 648
murder er</w> 648
e ob 647
o y 647
g r</w> 647
ou bli 647
gi ddy</w> 647
gu a</w> 647
cu tie</w> 647
vo y 647
who s</w> 647
tin o</w> 647
ë¦ ¬ 647
galax y</w> 647
tok yo</w> 647
z ei 646
co sts</w> 646
ri re</w> 646
wi res</w> 646
me i</w> 646
sta ckin</w> 646
sin i 646
car ve</w> 646
play as</w> 646
pisto ls</w> 646
respon si 646
parti r</w> 646
moti vation</w> 646
estre llas</w> 646
labe ls</w> 646
t ã¤ 645
j es</w> 645
ê ¹ 645
ti r</w> 645
wi l</w> 645
de lay</w> 645
bi an</w> 645
car ing</w> 645
as se 645
ser t</w> 645
crea ting</w> 645
mour ning</w> 645
k el</w> 644
er - 644
sa g 644
goo ds</w> 644
lan g 644
stran gest</w> 644
vor rei</w> 644
pal ms</w> 644
believ in</w> 644
ì </w> 644
ille gal</w> 644
juli et</w> 644
ã </w> 643
be so 643
do lls</w> 643
cor pses</w> 643
bloo ded</w> 643
can vas</w> 643
dev our</w> 643
ã  643
low - 643
hust la</w> 643
hero in</w> 643
a f</w> 642
2 nd</w> 642
vi de 642
pre fi 642
han a</w> 642
au to</w> 642
gen au</w> 642
plan ning</w> 642
tender ly</w> 642
adren aline</w> 642
d ã³ 641
su be 641
fin ed</w> 641
rhy min</w> 641
rep ent</w> 641
obse ssed</w> 641
ï î 641
testi fy</w> 641
9 - 640
an dar</w> 640
ra pi 640
wi ch</w> 640
to m 640
for k</w> 640
cra cking</w> 640
ste hen</w> 640
cur ves</w> 640
idi ot</w> 640
flaw less</w> 640
s worn</w> 639
f ying</w> 639
yo ng</w> 639
un fair</w> 639
po ke</w> 639
clo ver</w> 639
mm mm 639
wait ress</w> 639
au tres</w> 639
ã  639
fron ting</w> 639
decei ved</w> 639
anxi ous</w> 639
v amo</w> 638
ev in</w> 638
for te</w> 638
under wear</w> 638
tou te</w> 638
sal ir</w> 638
refle ctions</w> 638
la-la- la-la- 638
niem and</w> 638
was nt</w> 638
iri sh</w> 638
author ity</w> 638
cora ã§ã£o</w> 638
pla t 637
sta kes</w> 637
pro ved</w> 637
ka d</w> 637
pr ou 637
bar tender</w> 637
moun t</w> 637
é m</w> 637
expe cting</w> 637
suffer ed</w> 637
person ality</w> 637
defin ed</w> 637
terri fied</w> 637
a sa 636
un spoken</w> 636
for sake</w> 636
ci le</w> 636
he cho</w> 636
free style</w> 636
groo vy</w> 636
stop pable</w> 636
ou trage 635
lo re</w> 635
to u</w> 635
min t</w> 635
sch en 635
up t</w> 635
impre ssion</w> 635
fag got</w> 635
ro bber 634
to ler 634
wan dered</w> 634
hou se 634
fla gs</w> 634
wel fare</w> 634
revo lu 634
zombi e</w> 634
f ing</w> 633
di ck 633
qu a</w> 633
pp e</w> 633
ki llas</w> 633
enter tain</w> 633
non sense</w> 633
unbeliev able</w> 633
l ene</w> 632
no so 632
na ar</w> 632
win ners</w> 632
au ssi</w> 632
sal va 632
bod ys</w> 632
spl end 632
5 - 631
ig u 631
do dge</w> 631
na iled</w> 631
te le</w> 631
lie b</w> 631
land sca 631
fortun ate</w> 631
d da</w> 630
y l</w> 630
a sc 630
k . 630
p u</w> 630
ü ck</w> 630
1 4</w> 630
ar ia</w> 630
ha ffi</w> 630
ba ker</w> 630
di da</w> 630
un able</w> 630
el lo</w> 630
cra ck 630
sch t</w> 630
cho ked</w> 630
nun g</w> 630
condem ned</w> 630
al ter</w> 629
wa ssup</w> 629
ma xi 629
re ul</w> 629
ri m</w> 629
un stoppable</w> 629
de inem</w> 629
app ly</w> 629
pin ky</w> 629
day dream</w> 629
mexi can</w> 629
romp e</w> 629
e mo</w> 628
d ã­as</w> 628
i ce 628
c tic</w> 628
g ity</w> 628
se gui 628
in ner 628
tur ing</w> 628
wr in 628
ja ms</w> 628
min or</w> 628
l' on</w> 628
fra g 628
sni ff</w> 628
simi lar</w> 628
candle light</w> 628
appla use</w> 628
c or</w> 627
j . 627
da ß</w> 627
tri be</w> 627
je ts</w> 627
sch le 627
san to</w> 627
can do</w> 627
sse l</w> 627
situ ations</w> 627
mutha fuckas</w> 627
lif es</w> 627
vac ant</w> 627
mili tary</w> 627
n al 626
m cs</w> 626
' head</w> 626
z ion</w> 626
ho or 626
un ser</w> 626
ga m 626
ge gen</w> 626
writ in</w> 626
exi sts</w> 626
cl one</w> 626
spee ding</w> 626
se ly</w> 625
se gur 625
sh one</w> 625
ho lo 625
un ra 625
ta - 625
mu t</w> 625
chor ds</w> 625
poli te</w> 625
ay y</w> 625
wig gle</w> 625
ooh- ooh</w> 625
box es</w> 625
commun ity</w> 625
limou sine</w> 625
messa ges</w> 625
i dad</w> 624
c ca</w> 624
in je 624
dan k</w> 624
tou tes</w> 624
ph on 624
groo vin</w> 624
muj eres</w> 624
lor dy</w> 624
pay back</w> 624
woul dnt</w> 624
ava it</w> 624
fã¶ r</w> 624
persu a 624
c lev 623
y y</w> 623
a ' 623
a waiting</w> 623
sh h</w> 623
hea da 623
wal a</w> 623
tra ined</w> 623
puni shment</w> 623
spel ls</w> 623
certain ly</w> 623
joy ful</w> 623
d ant</w> 622
re ste</w> 622
par as 622
pro gra 622
pre par 622
tu ary</w> 622
sin n</w> 622
temp ted</w> 622
guar ds</w> 622
liber tad</w> 622
wif ey</w> 622
d ung</w> 621
ì ¤ 621
ì ° 621
se hn</w> 621
re pen 621
ba cked</w> 621
jo ey</w> 621
blu t</w> 621
pra da</w> 621
ban ner</w> 621
oooo o</w> 621
wer d</w> 621
happi ly</w> 621
g ale</w> 620
vi l</w> 620
tu cky</w> 620
che ers</w> 620
cri sis</w> 620
t' cha</w> 620
remin ded</w> 620
ar rows</w> 619
en der</w> 619
ba te</w> 619
mi sses</w> 619
pi u</w> 619
cli ff</w> 619
swit ched</w> 619
brigh tly</w> 619
quar ters</w> 619
re spi 618
be loved</w> 618
do ms</w> 618
stu mbled</w> 618
ran dom</w> 618
az ul</w> 618
pue da</w> 618
thir ty- 618
shar ks</w> 618
demon stra 618
holi c</w> 618
criti cs</w> 618
assa s 618
crui sing</w> 618
o me</w> 617
in gen</w> 617
an ders</w> 617
bu gs</w> 617
co b</w> 617
sa mba</w> 617
di scre 617
com po 617
mon os</w> 617
dri ve 617
ka ze</w> 617
outrage ous</w> 617
co cky</w> 616
sa bi 616
de clar 616
sha ken</w> 616
sl in 616
tch et</w> 616
ã© es</w> 616
dec line</w> 616
c iti 615
g ando</w> 615
ì  615
ar ena</w> 615
di shes</w> 615
per ch</w> 615
ac tive</w> 615
ce st</w> 615
desc end</w> 615
casu al 615
philoso phy</w> 615
c et</w> 614
4 4</w> 614
ou ts</w> 614
ca kes</w> 614
ti dings</w> 614
la b</w> 614
bo a 614
ck i 614
fin er</w> 614
ju an</w> 614
gga ge</w> 614
8 0 613
ma donna</w> 613
ge sicht</w> 613
vi ously</w> 613
ex change</w> 613
sk ins</w> 613
under water</w> 613
ã© l 613
die sel</w> 613
contem pla 613
î ³ 612
an ai</w> 612
ea zy</w> 612
ri sen</w> 612
ri cher</w> 612
tt s</w> 612
ge ben</w> 612
dan i 612
ã  612
sle eves</w> 612
consci ousness</w> 612
hhhh hhhh 612
k any 611
ë  611
li ter 611
ca ttle</w> 611
ta da</w> 611
sc ur 611
star ve</w> 611
vo ws</w> 611
hu ge</w> 611
sy rup</w> 611
don ne</w> 611
sub way</w> 611
dal las</w> 611
dep th</w> 611
esta ba</w> 611
battle field</w> 611
emin em</w> 611
c ee 610
no ble</w> 610
rea chin</w> 610
da bei</w> 610
na g 610
bl end</w> 610
ko u</w> 610
gri eve</w> 610
char i 610
v . 609
ð °</w> 609
ma tri 609
sa ves</w> 609
ba g 609
ga te 609
sta cking</w> 609
bal an 609
ss - 609
boun cin</w> 609
fer rari</w> 609
fire works</w> 609
dej es</w> 609
fascin ation</w> 609
ì¬ ë 609
r al 608
in iti 608
do ck</w> 608
com b 608
con do</w> 608
dea n</w> 608
au t</w> 608
dis respe 608
cru mbling</w> 608
deli ver 608
fuer za</w> 608
u hn</w> 607
un aware</w> 607
ta y 607
jo ints</w> 607
je wel</w> 607
es sa</w> 607
over dose</w> 607
bb er</w> 607
cl are</w> 607
sola mente</w> 607
o ms</w> 606
k st</w> 606
re lev 606
pi ed</w> 606
ex pan 606
ex otic</w> 606
blee din</w> 606
dece it</w> 606
shit ty</w> 606
bye -bye</w> 606
ð µ</w> 605
re por 605
pa dre</w> 605
po sso</w> 605
con ven 605
min g 605
coun tless</w> 605
ã ¨ 605
confu sing</w> 605
ì </w> 605
clai ming</w> 605
multi ply</w> 605
explan ation</w> 605
se ra 604
mu g</w> 604
tru sting</w> 604
ac er 604
ter ms</w> 604
ke y 604
snea kers</w> 604
reci pe</w> 604
shif ting</w> 604
anni hi 604
awk ward</w> 604
i z</w> 603
al to</w> 603
ca b 603
be ings</w> 603
le gen 603
na do</w> 603
eri c</w> 603
ai ds</w> 603
dig its</w> 603
mise rable</w> 603
pon go</w> 603
shou ts</w> 603
i ba</w> 602
in fa 602
ma h</w> 602
ca pe</w> 602
fi llin</w> 602
tan go</w> 602
wha tchu</w> 602
hug gin</w> 602
stitu tion</w> 602
neor eul</w> 602
noso tros</w> 602
se o 601
con na 601
ll ena</w> 601
sha ped</w> 601
cor d</w> 601
wan der 601
ã  601
eri a</w> 601
aa ah</w> 601
conversa tions</w> 601
four teen</w> 601
jeru salem</w> 601
clev eland</w> 601
n ã¤ 600
ù  600
an them</w> 600
su l</w> 600
shoo ter</w> 600
sé n 600
valle ys</w> 600
a stron 599
ho g</w> 599
nu est 599
parano ia</w> 599
concentra te</w> 599
x x</w> 598
you s</w> 598
ha be</w> 598
stu ffed</w> 598
dra ined</w> 598
bar rio</w> 598
pen it 598
tan tas</w> 598
fra u</w> 598
ken tucky</w> 598
dai sy</w> 598
pour quoi</w> 598
sprin g 598
cripp led</w> 598
hallo ween</w> 598
e gy 597
a voi 597
on eun</w> 597
ro y 597
ma ins</w> 597
re d- 597
ev enin</w> 597
la yed</w> 597
wi dow</w> 597
wi llin</w> 597
jo ker</w> 597
cro ws</w> 597
dri ve- 597
tor y</w> 597
exc el 597
hin di</w> 597
lif ts</w> 597
motha fucka</w> 597
angel es</w> 597
o sa</w> 596
a ste</w> 596
al a 596
it or</w> 596
ta ker</w> 596
sho vel</w> 596
sor ta</w> 596
guar dian</w> 596
mien tos</w> 596
ã a</w> 596
s que</w> 595
u de</w> 595
f led</w> 595
li cks</w> 595
en tes</w> 595
po bre</w> 595
ver bal</w> 595
cu anto</w> 595
fe der 595
pro lly</w> 595
tra u 595
kno ts</w> 595
men tality</w> 595
stan ces</w> 595
den ed</w> 595
stri pper</w> 595
sign i 595
ä± n 595
oooo oh</w> 595
deli cate</w> 595
segur o</w> 595
s z</w> 594
a val 594
a ura</w> 594
b list 594
an dre</w> 594
ba ttered</w> 594
ne lla</w> 594
jo ck</w> 594
ja mas</w> 594
ten se</w> 594
cap ti 594
ple dge</w> 594
fit ted</w> 594
rich ard</w> 594
demo cra 594
n g 593
er ate</w> 593
ar r 593
re in</w> 593
for se</w> 593
lu cin 593
mar vel 593
cho ppers</w> 593
deci rte</w> 593
gan ze</w> 593
corru ption</w> 593
soun d 593
adven ture</w> 593
u zi</w> 592
t .</w> 592
le tte</w> 592
te ur</w> 592
lin gers</w> 592
trea sures</w> 592
qu' elle</w> 592
dd led</w> 592
bran ches</w> 592
idi o 592
pretti est</w> 592
j k</w> 591
6 - 591
sa ble</w> 591
com pete</w> 591
ni c</w> 591
dea r 591
gra vy</w> 591
plea sant</w> 591
bra ce</w> 591
smar ter</w> 591
ef fort</w> 591
twin s</w> 591
honey moon</w> 591
dã³ nde</w> 591
go tt</w> 590
for evermore</w> 590
ex clu 590
sch o 590
fla shin</w> 590
ã© l</w> 590
pen as</w> 590
sca tter</w> 590
í </w> 590
â ¨ 590
anti - 590
mee k</w> 590
ø§ ø 590
terr or 590
å </w> 589
vol te</w> 589
heal ed</w> 589
eigh ty- 589
arre sted</w> 589
snow man</w> 589
m rs</w> 588
n' ai</w> 588
ma an</w> 588
ho pped</w> 588
gi l</w> 588
mi ld</w> 588
po ker</w> 588
lie ben</w> 588
ce meter 588
min k</w> 588
blin d 588
spla sh</w> 588
ro cker</w> 587
ho sti 587
to on</w> 587
oo k</w> 587
lu c 587
car es 587
tro l</w> 587
sor ri 587
gro ve</w> 587
stree t 587
cti on 587
bun ny</w> 587
dd y- 587
myster ies</w> 587
tear in</w> 587
photogra phs</w> 587
gif ted</w> 587
preva il</w> 587
s up</w> 586
no tch</w> 586
ho ppin</w> 586
ho mme</w> 586
un sere</w> 586
pi zza</w> 586
hu gs</w> 586
ã § 586
high s</w> 586
gri mas</w> 586
swer ve</w> 586
ë ¤ 586
magni fi 586
w ned</w> 585
z an</w> 585
en ligh 585
bu bba</w> 585
sa b 585
pre gnant</w> 585
mor nings</w> 585
stu b 585
wil din</w> 585
cy press</w> 585
trans for 585
certain ty</w> 585
poten tial</w> 585
contagi ous</w> 585
a th 584
a st 584
sh an 584
sa tin</w> 584
qui ã©n</w> 584
sur f</w> 584
d' une</w> 584
fen ces</w> 584
imper fe 584
b ster</w> 583
in do</w> 583
ig t</w> 583
ca er</w> 583
ca mou 583
be llo</w> 583
po dr 583
te ddy</w> 583
cta tions</w> 583
ribb on</w> 583
ea ten</w> 582
re ds</w> 582
co le</w> 582
to ot</w> 582
je ho 582
hoo p</w> 582
sal ty</w> 582
sla in</w> 582
ren ega 582
guar do</w> 582
al l' 581
ti k</w> 581
ke inen</w> 581
au th 581
wee zy</w> 581
gol d 581
u. s. 581
determin ed</w> 581
h mmm</w> 580
v els</w> 580
d ded</w> 580
me te</w> 580
con oc 580
min d 580
fra il</w> 580
kar i</w> 580
coo kies</w> 580
esp era</w> 580
inspi re</w> 580
bili ties</w> 580
slan gin</w> 580
see' est</w> 580
sligh tly</w> 580
u mm</w> 579
ca pi 579
la bor</w> 579
di vor 579
pa t 579
de clare</w> 579
pro ce 579
he ight</w> 579
ang les</w> 579
pen cil</w> 579
ty ran 579
ë³ ´ 579
ëª ¨ 579
obl ig 579
i denti 578
ti ous</w> 578
de scu 578
na ce</w> 578
pro ba 578
mar riage</w> 578
che ck 578
mer cur 578
cau ses</w> 578
wir st</w> 578
russi an</w> 578
virgin ia</w> 578
s ounded</w> 577
k ah</w> 577
co stu 577
the me</w> 577
un conditi 577
ru ler</w> 577
pre scri 577
sen din</w> 577
wea ker</w> 577
vie le</w> 577
sensit ive</w> 577
k ke</w> 576
ë  576
li mbo</w> 576
you d</w> 576
la va</w> 576
me th 576
pi cks</w> 576
pi res</w> 576
am ends</w> 576
mer e 576
zi o</w> 576
eter no</w> 576
dor t</w> 576
sie me</w> 576
profe ssi 576
circum stance</w> 576
enton ces</w> 576
e ys</w> 575
a pe</w> 575
5 00</w> 575
bu sco</w> 575
un like</w> 575
su ave</w> 575
mo tha</w> 575
de pri 575
belie fs</w> 575
expe ctations</w> 575
bul ous</w> 575
dul ce</w> 575
time less</w> 575
buff alo</w> 575
n ã©</w> 574
a -</w> 574
di f 574
mu ev 574
tur o</w> 574
ke ts</w> 574
ear l</w> 574
fol ded</w> 574
coun ter 574
ss ful</w> 574
dor mir</w> 574
inten se</w> 574
critici ze</w> 574
camou fla 574
di ly</w> 573
bea ring</w> 573
man ger</w> 573
per mission</w> 573
ree fer</w> 573
chor us 573
oc to 573
ob scene</w> 573
vie t 573
contra ct</w> 573
scan dal 573
umbre lla</w> 573
lo rs</w> 572
ro ck- 572
ra ven 572
di fer 572
un dress</w> 572
de sk</w> 572
oo hh</w> 572
fe it</w> 572
woo gie</w> 572
ë§ </w> 572
pa se</w> 571
na vy</w> 571
stra te 571
z on 570
se g 570
di smi 570
su ite</w> 570
hi sto 570
sun down</w> 570
scar let</w> 570
ty pes</w> 570
wee ds</w> 570
g ore</w> 569
se mi</w> 569
re o</w> 569
ch s</w> 569
ra ve</w> 569
co lon 569
qu ita</w> 569
mo do</w> 569
mor ena</w> 569
qui er</w> 569
is ra 569
ai ming</w> 569
choo sing</w> 569
p- p- 569
mean ing 569
sub tle</w> 569
ballo on</w> 569
amane cer</w> 569
cly de</w> 569
c el</w> 568
a wait</w> 568
er r 568
ca - 568
la ze</w> 568
de mos</w> 568
sp reads</w> 568
cu ff</w> 568
gra ce 568
woo d 568
coa ted</w> 568
mil ky</w> 568
oh-oh- oh-oh</w> 568
craw led</w> 568
opin ions</w> 568
suffo cate</w> 568
ore om</w> 568
n ev 567
m ã¼ 567
a sp 567
a pathy</w> 567
k ro 567
ð ¸ 567
sh ville</w> 567
ri endo</w> 567
wit ches</w> 567
hi er 567
cu ss</w> 567
sha ke 567
fre sh 567
fea red</w> 567
stun na</w> 567
resurre ction</w> 567
subli me</w> 567
mercur y</w> 567
î ¯ 566
sa tan 566
fi shin</w> 566
wo man 566
men ace</w> 566
gre ens</w> 566
pen nies</w> 566
pin ch</w> 566
coa ts</w> 566
dd les</w> 566
cul pa</w> 566
sue de</w> 566
tain ted</w> 566
org hin 566
flip mode</w> 566
lo cura</w> 565
un ter</w> 565
so lar</w> 565
to w</w> 565
mi ei</w> 565
ge t- 565
chi o</w> 565
app e 565
dor a</w> 565
slo wer</w> 565
dol ph</w> 565
neo mu</w> 565
vul tures</w> 565
prophe cy</w> 565
ê¸ ° 565
wastel and</w> 565
e ttes</w> 564
l st</w> 564
di ary</w> 564
pa ve</w> 564
dar me</w> 564
ja ke</w> 564
he ur</w> 564
est eem</w> 564
list ens</w> 564
gle ich</w> 564
oper ation</w> 564
patter n</w> 564
e gy</w> 563
o ft</w> 563
l ength</w> 563
a dios</w> 563
k able</w> 563
re cover</w> 563
bu scar</w> 563
ge m</w> 563
tra ded</w> 563
ni ke</w> 563
ke do</w> 563
glo bal</w> 563
ã¶ y 563
stron gest</w> 563
black ness</w> 563
esper anza</w> 563
g é 562
pu ri 562
du bs</w> 562
ter n</w> 562
hu t</w> 562
my stic</w> 562
flo rida</w> 562
bor der 562
contro lling</w> 562
ã ¯ 562
tar a</w> 562
ligh tly</w> 562
ciu dad</w> 562
k lin 561
ea s</w> 561
sel ls</w> 561
vo cal</w> 561
per spe 561
ac or 561
sch wer</w> 561
win dy</w> 561
can i 561
free ly</w> 561
buil din</w> 561
vor y</w> 561
cin e 561
coo chie</w> 561
destro ying</w> 561
craw lin</w> 561
offi cer</w> 561
e di 560
p reaching</w> 560
re du 560
ra ven</w> 560
cal ma</w> 560
sch mer 560
pr ã© 560
et was</w> 560
chemi cals</w> 560
never - 560
earth ly</w> 560
south side</w> 560
piti ful</w> 560
beso in</w> 560
c ke</w> 559
ma si 559
be ll 559
di stri 559
me j</w> 559
mu ti 559
cu be</w> 559
tal ler</w> 559
je o 559
bra ss</w> 559
cin o</w> 559
pho en 559
triump h</w> 559
lex us</w> 559
v ana</w> 558
s mo</w> 558
z y 558
it as</w> 558
co ll 558
ba ba</w> 558
wor t</w> 558
con tre</w> 558
vo cals</w> 558
jo lly</w> 558
hu m 558
cha que</w> 558
inter ru 558
tigh tly</w> 558
s ve 557
se ssion</w> 557
lo bby</w> 557
di as</w> 557
un lea 557
mo et</w> 557
pa pa 557
loo sing</w> 557
con fron 557
ad mire</w> 557
hal lucin 557
stu re</w> 557
scre ens</w> 557
dama ged</w> 557
sie hst</w> 557
blos som</w> 557
restaur ant</w> 557
o wns</w> 556
g ons</w> 556
3 rd</w> 556
z ation</w> 556
li mp</w> 556
la ti 556
un said</w> 556
wi lly</w> 556
de cent</w> 556
com bat</w> 556
ci se</w> 556
vo ll</w> 556
plea ding</w> 556
men s</w> 556
sal u 556
em pie 556
iz er</w> 556
enter ed</w> 556
soa king</w> 556
o so</w> 555
å </w> 555
st en 555
com pared</w> 555
bur dens</w> 555
ja pan 555
cro sses</w> 555
ã  555
over load</w> 555
char ts</w> 555
frea king</w> 555
coa ch</w> 555
deli vered</w> 555
pas sa</w> 555
i cal</w> 554
r oun 554
in sieme</w> 554
ha haha</w> 554
di stin 554
bro om</w> 554
dra ke</w> 554
kin der</w> 554
uni form</w> 554
less ness</w> 554
contra di 554
blon d</w> 554
sky line</w> 554
i de</w> 553
f ty</w> 553
al lt</w> 553
bu mper</w> 553
ha ul</w> 553
ba sk 553
ab ly</w> 553
bla sting</w> 553
mar gar 553
run ner</w> 553
che oreom</w> 553
san dy</w> 553
pen is</w> 553
coo ked</w> 553
ë§  553
soo the</w> 553
tattoo ed</w> 553
sacrifi ced</w> 553
d ita</w> 552
s -</w> 552
ë ¹ 552
ra ged</w> 552
ru mor</w> 552
na shville</w> 552
for tress</w> 552
sen su 552
iti ous</w> 552
tran sla 552
refu sed</w> 552
desper tar</w> 552
fran cisco</w> 552
1 2 551
le mon 551
thin e</w> 551
vir tue</w> 551
d é</w> 550
sh am</w> 550
ne i</w> 550
su elo</w> 550
vi vre</w> 550
man g</w> 550
flo res</w> 550
bri ef</w> 550
supp er</w> 550
pota to</w> 550
ambu lance</w> 550
l ento</w> 549
a we</w> 549
k ken</w> 549
an t 549
al len</w> 549
ri g</w> 549
pa m</w> 549
thin g 549
sti mu 549
je de</w> 549
ban d 549
spi el</w> 549
spor ts</w> 549
s pain</w> 548
t ã£o</w> 548
b our</w> 548
p hu 548
ma ge</w> 548
ru e</w> 548
gu sto</w> 548
sm aller</w> 548
part ners</w> 548
threa ts</w> 548
llu via</w> 548
segun do</w> 548
phoen ix</w> 548
di um</w> 547
over night</w> 547
tã ª 547
ener y</w> 547
celebr ity</w> 547
hoor ay</w> 547
c lon 546
s or</w> 546
y um</w> 546
a ck 546
en ess</w> 546
ca si</w> 546
so phi 546
bo lt</w> 546
gu in 546
tra mp</w> 546
who ah</w> 546
gen ie</w> 546
cambi ar</w> 546
effe cts</w> 546
compar es</w> 546
sufri r</w> 546
ë ¼ 546
a ch 545
sa de</w> 545
di ving</w> 545
est ã¡n</w> 545
ã¤ n</w> 545
wre cking</w> 545
heart breaker</w> 545
ecli pse</w> 545
m us</w> 544
d us</w> 544
c ita</w> 544
la ting</w> 544
sa vin</w> 544
sp lin 544
str eng 544
je ong 544
stan k</w> 544
musi k</w> 544
ben ding</w> 544
glo ri 544
char les</w> 544
scra pe</w> 544
jer ry</w> 544
relie ve</w> 544
fairy tale</w> 544
combin ation</w> 544
re tire</w> 543
la mes</w> 543
fa i</w> 543
ce ux</w> 543
my th</w> 543
sit a</w> 543
fli pping</w> 543
d- up</w> 543
bon ita</w> 543
mbi a</w> 543
sco tt</w> 543
water fall</w> 543
thera py</w> 543
a me 542
li o</w> 542
ba ch</w> 542
fa bulous</w> 542
wor ms</w> 542
mu le</w> 542
sla very</w> 542
yester days</w> 542
scra tching</w> 542
proper ty</w> 542
marty r</w> 542
u me</w> 541
en tal</w> 541
co tt 541
hea ted</w> 541
vi ent</w> 541
ver o</w> 541
tu yo</w> 541
tu ition</w> 541
dar y</w> 541
du mb 541
va d</w> 541
cre er</w> 541
cla n</w> 541
dev ou 541
try nna</w> 541
anxi ety</w> 541
sanc tuary</w> 541
lifel ine</w> 541
i e 540
u ts</w> 540
hi bit 540
ni ã±a</w> 540
yy y</w> 540
w and</w> 539
ca bin</w> 539
re play</w> 539
re port</w> 539
ba t 539
im ma 539
oc cur 539
hn en</w> 539
suici dal</w> 539
sug ge 539
limit ed</w> 539
i vory</w> 538
b wa 538
p les</w> 538
be im</w> 538
ra me</w> 538
ha sh</w> 538
su gar 538
fi e</w> 538
ru mba</w> 538
vi rus</w> 538
ja cks</w> 538
pr on 538
refle cting</w> 538
fea tures</w> 538
seri ously</w> 538
syste ms</w> 538
passion ate</w> 538
o ho</w> 537
a dos</w> 537
a hi</w> 537
å ¤ 537
go ver</w> 537
ch ute</w> 537
ta med</w> 537
ru e 537
war fare</w> 537
che f</w> 537
mis ma</w> 537
ed die</w> 537
cemeter y</w> 537
d ity</w> 536
th ong</w> 536
ca ssi 536
con tain</w> 536
apo logy</w> 536
ale gr 536
frustra ted</w> 536
knu ckles</w> 536
ido l</w> 536
e ins</w> 535
ti jd</w> 535
par alle 535
bea sts</w> 535
ã  535
snea king</w> 535
bubb les</w> 535
atr ã¡s</w> 535
i'm- a</w> 535
i sa 534
t ã¡</w> 534
no men 534
da a</w> 534
po ster</w> 534
gy m</w> 534
make -up</w> 534
puni sh</w> 534
whoa- oh</w> 534
robber y</w> 534
n te</w> 533
y ar 533
p pa 533
er me</w> 533
ma yor</w> 533
ti ss</w> 533
pa sse</w> 533
hear se</w> 533
lear nt</w> 533
high ly</w> 533
wre tched</w> 533
vou dra 533
whir l</w> 533
straw berry</w> 533
stub born</w> 533
o ven</w> 532
w ning</w> 532
g ina</w> 532
î ½</w> 532
en din</w> 532
ba con</w> 532
ga da</w> 532
qu ality</w> 532
fi ery</w> 532
hi j</w> 532
hi zo</w> 532
ver di 532
bur ner</w> 532
wan na 532
voi x</w> 532
night time</w> 532
stin k</w> 532
drif ted</w> 532
grand pa</w> 532
skin ned</w> 532
recuer dos</w> 532
whir l 532
1 9</w> 531
se ttin</w> 531
an ew</w> 531
al can 531
da ble</w> 531
de parted</w> 531
pri celess</w> 531
stre ssing</w> 531
coun tdown</w> 531
bir dman</w> 531
ob viously</w> 531
gan da</w> 531
deli rious</w> 531
sse y</w> 531
flu id</w> 531
o. g</w> 531
aba jo</w> 531
denti al</w> 531
popu lation</w> 531
increa se</w> 531
v aga 530
m pi 530
i solation</w> 530
al oud</w> 530
ma stur 530
sa dly</w> 530
whi pping</w> 530
ac tor</w> 530
ve ge 530
he im</w> 530
char ity</w> 530
nar eul</w> 530
clar ity</w> 530
dedi cation</w> 530
frigh tening</w> 530
deix a</w> 530
v ah</w> 529
a ho 529
wa g</w> 529
ca t 529
di stress</w> 529
pu mp 529
drea ds</w> 529
bla cks</w> 529
mm ering</w> 529
ali bis</w> 529
tro phy</w> 529
cla sh</w> 529
dis sin</w> 529
wel ls</w> 529
ban dit</w> 529
dur a</w> 529
voy age</w> 529
m ly</w> 528
m ga</w> 528
d ã©</w> 528
a van 528
se vered</w> 528
wa shin 528
bo t</w> 528
pu oi</w> 528
na a</w> 528
der ni 528
ex er 528
qui z 528
ste h</w> 528
pri se</w> 528
lin ess</w> 528
bor e 528
cho pped</w> 528
sun k</w> 528
kin i</w> 528
brui ses</w> 528
ãª ã 528
rel ent 528
budd ha</w> 528
scandal ous</w> 528
t ere</w> 527
t ã¼ 527
ù </w> 527
gi b</w> 527
qu ina</w> 527
de j</w> 527
sc um</w> 527
char ged</w> 527
slo ppy</w> 527
remin ding</w> 527
raci st</w> 527
responsi bility</w> 527
m ãº 526
f ang</w> 526
se ver</w> 526
ro bert</w> 526
ev ent</w> 526
ha wa 526
da ts</w> 526
fu turo</w> 526
fro g</w> 526
mar ble</w> 526
senti miento</w> 526
cual quier</w> 526
f . 525
p her</w> 525
ã ´</w> 525
pa ssage</w> 525
pu so</w> 525
ru dolph</w> 525
br ig 525
clo ses</w> 525
ju das</w> 525
cro ok</w> 525
at tic</w> 525
stu pi 525
fan ts</w> 525
moon shine</w> 525
enter ta 525
rubb in</w> 525
c c 524
ã ¼</w> 524
co co 524
di sh 524
mon u 524
tu oi</w> 524
clo cks</w> 524
ã ¾ 524
ben ded</w> 524
fre quen 524
ow ner</w> 524
prophe ts</w> 524
w u</w> 523
ù  523
ro bbin</w> 523
ma fia</w> 523
re sul 523
la ssen</w> 523
si zed</w> 523
pp o</w> 523
op tion</w> 523
chi - 523
fla kes</w> 523
ye e</w> 523
y- y- 523
wei ß</w> 523
twin kle</w> 523
k ö 522
î ´ 522
ar u 522
re mix</w> 522
you ths</w> 522
ta e</w> 522
sch au</w> 522
pri ck</w> 522
men ta</w> 522
is ch</w> 522
eeee eeee 522
y ards</w> 521
an da 521
ro se 521
ro sie</w> 521
ha b 521
tt an</w> 521
sta tions</w> 521
lie ber</w> 521
dr ought</w> 521
gra tu 521
bur g</w> 521
ser enade</w> 521
att a</w> 521
thu r</w> 521
super st 521
cin na 521
senti do</w> 521
e ' 520
yo - 520
di dd 520
gi r</w> 520
sta mp</w> 520
ex pose</w> 520
mm - 520
reme mbers</w> 520
lear nin</w> 520
dig gy</w> 520
tar i</w> 520
grea sy</w> 520
symbo l</w> 520
s sy 519
g ust</w> 519
a ka</w> 519
ch ro 519
ba sket</w> 519
mo m 519
lun atic</w> 519
hope fully</w> 519
scor n</w> 519
clar o</w> 519
rar ely</w> 519
nae ge</w> 519
carol ine</w> 519
shepher d</w> 519
geno cide</w> 519
in clin 518
sh ab 518
vo mit</w> 518
dr es</w> 518
ph a</w> 518
deser ves</w> 518
head lines</w> 518
ani um</w> 518
blei b</w> 518
flee ting</w> 518
penetra te</w> 518
felici dad</w> 518
r ã¼ 517
p he</w> 517
an an 517
on line</w> 517
ta m</w> 517
ga tion</w> 517
ge - 517
car ou 517
ju bi 517
ju icy</w> 517
back stage</w> 517
mel ts</w> 517
nan te</w> 517
travel ling</w> 517
jack ie</w> 517
charac ter</w> 517
e um</w> 516
g ears</w> 516
f ã©</w> 516
6 5</w> 516
no ite</w> 516
bu ss</w> 516
sa bor</w> 516
bo i</w> 516
ur en</w> 516
el las</w> 516
po tion</w> 516
oo o- 516
bi z 516
sw ine</w> 516
glo ws</w> 516
cer tified</w> 516
ly n 516
schoo ls</w> 516
fer ence</w> 516
glea ming</w> 516
bitter ness</w> 516
face less</w> 516
asi an</w> 516
be ers</w> 515
di sin 515
ta sty</w> 515
ga p</w> 515
fa zer</w> 515
ver se 515
as a</w> 515
ste st</w> 515
sur ance</w> 515
hy steri 515
eri ck</w> 515
zu sa 515
shu ffle</w> 515
oper ator</w> 515
ë  515
d na</w> 514
c ey</w> 514
g ong</w> 514
in ta 514
so wn</w> 514
lie gt</w> 514
mar shall</w> 514
cham p</w> 514
nan eun</w> 514
air plane</w> 514
cambi o</w> 514
mill i</w> 514
prison ers</w> 514
r st</w> 513
k at</w> 513
en tender</w> 513
ca ss</w> 513
ti po</w> 513
co l</w> 513
di spo 513
mi ck</w> 513
su ena</w> 513
ad vi 513
deci des</w> 513
anticipa ting</w> 513
kany e</w> 513
a isle</w> 512
lo an</w> 512
la tor</w> 512
di plo 512
ver ted</w> 512
ver sch 512
pe u 512
sor a</w> 512
fif ty- 512
pren de</w> 512
desc ending</w> 512
happi er</w> 512
influ ence</w> 512
3 8</w> 511
li g</w> 511
it - 511
ca so</w> 511
tt o 511
tea ching</w> 511
cri stal</w> 511
there fore</w> 511
horri ble</w> 511
l ã¡ 510
b lin</w> 510
in tent</w> 510
ea gles</w> 510
er an</w> 510
be ts</w> 510
wi zard</w> 510
wal k 510
lin col 510
es que 510
rhy ming</w> 510
eng ines</w> 510
g- unit</w> 510
swit ching</w> 510
corru pt</w> 510
earth quake</w> 510
epi so 510
f lights</w> 509
ù  509
th ful</w> 509
en - 509
ro yalty</w> 509
bu lly</w> 509
loo sen</w> 509
pe ers</w> 509
pe pper</w> 509
ex hau 509
good - 509
christ ma 509
gar s</w> 509
die sen</w> 509
foot prints</w> 509
year n</w> 509
reel ing</w> 509
en sla 508
ba the</w> 508
wi ped</w> 508
to ma 508
br on</w> 508
man chmal</w> 508
ff en</w> 508
over due</w> 508
ã¨ res</w> 508
vuel ta</w> 508
betra yal</w> 508
approa ching</w> 508
a ten 507
5 0 507
al ls</w> 507
no c 507
en da</w> 507
ma tches</w> 507
ti ca</w> 507
ri bs</w> 507
ver e 507
wo ah- 507
wo llen</w> 507
va ya</w> 507
den te</w> 507
fla ming</w> 507
ben jam 507
ya cht</w> 507
val or</w> 507
nin e- 507
dear ly</w> 507
a unt</w> 506
f fe</w> 506
st itch</w> 506
re turns</w> 506
re ject</w> 506
ri pe</w> 506
le id</w> 506
sp rings</w> 506
lan ding</w> 506
tea u</w> 506
ste als</w> 506
cru el 506
tun g</w> 506
ob ject</w> 506
colla p 506
ð¾ ð 506
amor es</w> 506
u it</w> 505
g gas</w> 505
an dy</w> 505
con qui 505
pi er</w> 505
sha dow 505
ex p 505
lin g 505
tin ted</w> 505
spi ral</w> 505
inter ior</w> 505
enamor ado</w> 505
y as</w> 504
b .</w> 504
th ra 504
co ws</w> 504
to te</w> 504
ga b</w> 504
lea k</w> 504
op h 504
ver lo 504
mon roe</w> 504
ja cked</w> 504
mm it</w> 504
win ters</w> 504
techno logy</w> 504
b ble 503
wh ale</w> 503
ma ttered</w> 503
bo k 503
wor th 503
gra cias</w> 503
ja il 503
min us</w> 503
war mer</w> 503
pur sue</w> 503
o. k</w> 503
grou pies</w> 503
analy ze</w> 503
oppre ssion</w> 503
state ment</w> 503
o ve</w> 502
k ã¶ 502
p ins</w> 502
sa e</w> 502
di z</w> 502
pp les</w> 502
cu ento</w> 502
sw ings</w> 502
he im 502
is - 502
colo r 502
brin k</w> 502
lais se</w> 502
premi er</w> 502
m sayin</w> 501
a ciã³n</w> 501
in con 501
wa ved</w> 501
de ceased</w> 501
mb res</w> 501
sel dom</w> 501
tra iler</w> 501
bri an</w> 501
home boys</w> 501
safe ly</w> 501
c one</w> 500
g ye 500
k ã¼ 500
an guish</w> 500
or dered</w> 500
wa ar</w> 500
ro lex</w> 500
re moved</w> 500
ra g 500
ga an</w> 500
ab sor 500
con test</w> 500
car te</w> 500
fla unt</w> 500
die ses</w> 500
magne tic</w> 500
apocaly pse</w> 500
s son</w> 499
ar e- 499
ca pable</w> 499
co con 499
op era</w> 499
pea u</w> 499
ko i</w> 499
tis sue</w> 499
s' en</w> 499
enti endo</w> 499
john son</w> 499
wis sen</w> 499
abi de</w> 499
conclu sion</w> 499
straigh ten</w> 499
r yin</w> 498
w ã¤ 498
6 9</w> 498
4 th</w> 498
an no</w> 498
lo lli 498
ba sh</w> 498
si ll</w> 498
bi lli 498
goo dy</w> 498
cu t 498
star k</w> 498
man ha 498
ju mps</w> 498
va por 498
shi vers</w> 498
head phones</w> 498
kra yzie</w> 498
respi rar</w> 498
c ough 497
t it</w> 497
in o 497
ar mies</w> 497
go ons</w> 497
con s</w> 497
sc enery</w> 497
run way</w> 497
est an</w> 497
fo am</w> 497
day time</w> 497
produ ce</w> 497
elev ate</w> 497
vibra tions</w> 497
allig ator</w> 497
lo c</w> 496
ri dge</w> 496
me m' 496
vi ver</w> 496
con spira 496
can dela</w> 496
sun s</w> 496
ë§  496
air port</w> 496
heli co 496
m ã­ 495
t n</w> 495
p early</w> 495
mo jo</w> 495
gu ã©m</w> 495
sha ve</w> 495
cre pt</w> 495
ban ger</w> 495
mit t</w> 495
a. m</w> 495
aug ust</w> 495
assa ssin</w> 495
c re</w> 494
g ance</w> 494
th - 494
al lo 494
ca sting</w> 494
sa ma</w> 494
ha ck</w> 494
mi eux</w> 494
hu mor</w> 494
spra yed</w> 494
washin gton</w> 494
k hal 493
t ã­</w> 493
la mbo</w> 493
ha z 493
me y</w> 493
ne ls</w> 493
bi scu 493
min ation</w> 493
ser vant</w> 493
contro ls</w> 493
what 'cha</w> 493
rai sin</w> 493
colle cting</w> 493
chin o</w> 493
hhhh hh</w> 493
clin ging</w> 493
sand wich</w> 493
discu ss</w> 493
ï  492
ha cen</w> 492
lie f 492
bro ther 492
jo king</w> 492
ss le</w> 492
sex u 492
des nu 492
confi dent</w> 492
clai ms</w> 492
standar d</w> 492
faul ts</w> 492
prefi ero</w> 492
drive way</w> 492
a ti 491
ch un 491
to ms</w> 491
ne t 491
ver li 491
du ckin</w> 491
ju veni 491
pri vi 491
im in</w> 491
ob sta 491
fanta size</w> 491
wie der 491
ì  491
ch- ch- 491
î½ î±</w> 491
remo te</w> 491
perspe ctive</w> 491
s ought</w> 490
a it</w> 490
k y- 490
no pe</w> 490
ra pp 490
ra tes</w> 490
da tes</w> 490
ge t 490
ab laze</w> 490
we er</w> 490
clo th</w> 490
wan a</w> 490
swi mmin</w> 490
blin dly</w> 490
brigh ten</w> 490
youn g 490
indepen dence</w> 490
distur b</w> 490
lamb orghin 490
s v 489
ti l 489
ti ef</w> 489
la vi 489
co inci 489
ba ts</w> 489
ho mo 489
de tails</w> 489
tra dition</w> 489
ju lie</w> 489
ser pen 489
fran kie</w> 489
ful filled</w> 489
consequ ences</w> 489
suspi cious</w> 489
viet nam</w> 489
i dle</w> 488
s so 488
/ /</w> 488
in fli 488
re stra 488
un touch 488
so tto</w> 488
for t 488
mor ir 488
lon gs</w> 488
shin ed</w> 488
ski pping</w> 488
prin ci 488
trig ga</w> 488
vit al</w> 488
repea ts</w> 488
vam pire</w> 488
moni ca</w> 488
go tta</w> 487
di pped</w> 487
di eu</w> 487
ta ta 487
vi le</w> 487
par ting</w> 487
ja y- 487
men schen</w> 487
den tal</w> 487
vie jo</w> 487
hit o 487
depen ding</w> 487
rende z 487
h s</w> 486
b ã© 486
3 0 486
se w</w> 486
se cu 486
ho se</w> 486
mi li</w> 486
su re 486
te ens</w> 486
tru ths</w> 486
ko e</w> 486
real er</w> 486
jun ge</w> 486
writ ers</w> 486
ì ¼</w> 486
equi pped</w> 486
pyra mid</w> 486
go d- 485
ho ward</w> 485
de spe 485
con flict</w> 485
cro is</w> 485
stu dent</w> 485
cur ly</w> 485
vol un 485
bon heur</w> 485
sub stance</w> 485
kit to</w> 485
numb ered</w> 485
e sas</w> 484
d m</w> 484
d ã¡</w> 484
de er</w> 484
fi ve- 484
te sting</w> 484
mar i</w> 484
cor re</w> 484
bra wl</w> 484
poin tless</w> 484
camin ar</w> 484
i sa</w> 483
o ba 483
r ite</w> 483
k l 483
ã </w> 483
_ _</w> 483
en as</w> 483
un folds</w> 483
da ge</w> 483
me mbers</w> 483
gi u 483
ge un 483
mon te</w> 483
ja cob</w> 483
cho kin</w> 483
por n</w> 483
att e</w> 483
tan o</w> 483
cel lu 483
dun geon</w> 483
hai red</w> 483
d ors</w> 482
f eri 482
di endo</w> 482
un told</w> 482
si sta</w> 482
hea ter</w> 482
tr ough</w> 482
na s 482
fe mme</w> 482
ve ments</w> 482
sw ang</w> 482
men o</w> 482
gli a</w> 482
all er 482
posit ions</w> 482
lei der</w> 482
arti ficial</w> 482
git y- 482
d .</w> 481
j ab 481
se nor 481
co vering</w> 481
do lly</w> 481
do ot</w> 481
rea son 481
gi ã</w> 481
sta ges</w> 481
sta tue</w> 481
po de</w> 481
oo p</w> 481
lu ther</w> 481
pro pa 481
he ure 481
fun ds</w> 481
fra mes</w> 481
dog gone</w> 481
cata stro 481
relev ant</w> 481
lemon ade</w> 481
m ba 480
o tros</w> 480
it t</w> 480
ro be</w> 480
ma il 480
you ' 480
bu mpy</w> 480
el u 480
fee ble</w> 480
pu ppy</w> 480
clu es</w> 480
pea s</w> 480
nin es</w> 480
down fall</w> 480
l- o- 480
horiz ons</w> 480
convi ction</w> 480
communi cate</w> 480
gã¶ z 480
wreck age</w> 480
k han</w> 479
f ont</w> 479
p ev 479
í  479
in ted</w> 479
li m</w> 479
ra c 479
ra sta</w> 479
qu ent</w> 479
hi de 479
mor bid</w> 479
sin ks</w> 479
car o 479
fin s</w> 479
ag ent</w> 479
sco tch</w> 479
emce e</w> 479
dance floor</w> 479
s ling</w> 478
r ank</w> 478
li to</w> 478
or ed</w> 478
ca ged</w> 478
sp ing</w> 478
bon ds</w> 478
respon d</w> 478
hyp no 478
eye lids</w> 478
vio let</w> 478
absolu te</w> 478
accep ted</w> 478
shepher ds</w> 478
sube te</w> 478
mãº sica</w> 478
h int</w> 477
a ã±os</w> 477
p ã© 477
2 6</w> 477
lo tto</w> 477
li cked</w> 477
sh ee 477
ca mi 477
ch an</w> 477
bu sca 477
di ste</w> 477
so ms</w> 477
bo l</w> 477
ge schi 477
na vi 477
na mida</w> 477
mu chas</w> 477
pi rate</w> 477
sel fish 477
bal con 477
sig u 477
imag ined</w> 477
pin es</w> 477
indu l 477
clean se</w> 477
fred die</w> 477
d din</w> 476
o ak 476
ar m 476
ma dly</w> 476
do cu 476
bo p- 476
bo iling</w> 476
har bor</w> 476
am bi 476
ja son</w> 476
fol ding</w> 476
super ior</w> 476
moon lit</w> 476
irgend wann</w> 476
a ya 475
re pair</w> 475
ne oui</w> 475
nig a</w> 475
sen ti</w> 475
men tre</w> 475
ã  475
lyri cally</w> 475
gur l</w> 475
bare foot</w> 475
renega de</w> 475
m s.</w> 474
k ã¤ 474
ma che 474
di stan 474
pa ar</w> 474
ru shed</w> 474
sw arm</w> 474
sli din</w> 474
dis fru 474
scar es</w> 474
lle st</w> 474
spi ke</w> 474
over - 474
zz ard</w> 474
sche ming</w> 474
u ary</w> 473
a voir</w> 473
re tali 473
ra it</w> 473
cha - 473
blu sh</w> 473
out - 473
supp or 473
lar ger</w> 473
cin ta</w> 473
f- ck</w> 473
swa ying</w> 473
aca ba</w> 473
histo ire</w> 473
se men</w> 472
la y 472
do le</w> 472
si l</w> 472
to pic</w> 472
mo tions</w> 472
fa sci 472
ru mour</w> 472
str and</w> 472
por ta</w> 472
rela ted</w> 472
dã© jame</w> 472
mani fest</w> 472
rebe ls</w> 472
gue ssed</w> 472
ato mic</w> 472
portra it</w> 472
o di 471
a ãºn</w> 471
se i 471
al ex 471
ro llie</w> 471
ma mbo</w> 471
sa k</w> 471
sa mple</w> 471
un certain</w> 471
so aring</w> 471
mi lls</w> 471
mo ons</w> 471
sc rap</w> 471
sc rub</w> 471
pro claim</w> 471
tu r</w> 471
gro cer 471
bar be 471
spo iled</w> 471
j' en</w> 471
esca ped</w> 471
ã  471
alle lu 471
red neck</w> 471
bour bon</w> 471
infer nal</w> 471
subur ban</w> 471
heada che</w> 471
meth od</w> 471
rendez vous</w> 471
v able</w> 470
i deal</w> 470
j er</w> 470
z ä 470
se it</w> 470
sa fer</w> 470
vi r</w> 470
every thin</w> 470
sin gers</w> 470
tri cky</w> 470
tro is</w> 470
out come</w> 470
spar kling</w> 470
quer erte</w> 470
represen tin</w> 470
skele tons</w> 470
blasphe my</w> 470
veter an</w> 470
z wi 469
en ta</w> 469
di mmi</w> 469
bo il</w> 469
ki lo</w> 469
sho ppin</w> 469
ni um</w> 469
gr und</w> 469
cr o</w> 469
ban anas</w> 469
buil ds</w> 469
guar da</w> 469
gor illa</w> 469
pier ce</w> 469
bran ch</w> 469
musc les</w> 469
distra ction</w> 469
somb ra</w> 469
other wise</w> 469
cab bage</w> 469
i ller</w> 468
u to 468
no u</w> 468
no stal 468
ch t 468
bu en</w> 468
bu mps</w> 468
ta ire</w> 468
pu mps</w> 468
pro dig 468
der anged</w> 468
nee din</w> 468
kin dly</w> 468
shor ter</w> 468
sme lling</w> 468
sar te</w> 468
arri ves</w> 468
reve aling</w> 468
phe nomen 468
adi ã³s</w> 468
mix tape</w> 468
master piece</w> 468
accor ding</w> 468
tau send</w> 468
juveni le</w> 468
e less</w> 467
o hhhhh</w> 467
s ve</w> 467
t wee 467
st ale</w> 467
co co</w> 467
sa eng 467
ge un</w> 467
po ppa</w> 467
gra ff 467
gri eving</w> 467
ya yo</w> 467
d' hui</w> 467
t' as</w> 467
ill es</w> 467
sad dest</w> 467
snit ches</w> 467
cyni cal</w> 467
l ens</w> 466
w w</w> 466
a ms</w> 466
7 th</w> 466
or che 466
ma tin</w> 466
com mer 466
cal cu 466
cro p</w> 466
au jour 466
y' know</w> 466
hoo ks</w> 466
gan ja</w> 466
sie ht</w> 466
glu ed</w> 466
oa th</w> 466
d ã­ 465
a ur 465
a woke</w> 465
' n 465
ï  465
ma tar</w> 465
ti psy</w> 465
co se</w> 465
star d</w> 465
dan a</w> 465
gr is</w> 465
va cu 465
her d</w> 465
recor ded</w> 465
gran ny</w> 465
far i</w> 465
colu m 465
m ã¤ 464
i da 464
u k</w> 464
g g</w> 464
a hhhh</w> 464
ar ch 464
ba mb 464
un usual</w> 464
pa tr 464
hi p 464
pe tals</w> 464
ali a</w> 464
gui dance</w> 464
phan ts</w> 464
loun ge</w> 464
l ã¡</w> 463
an dare</w> 463
n' roll</w> 463
en velo 463
be sti 463
nig h</w> 463
pri mera</w> 463
va do</w> 463
stra l</w> 463
smo key</w> 463
eng ine 463
swit ches</w> 463
gl are</w> 463
rock star</w> 463
hacer te</w> 463
ro pa</w> 462
ra da</w> 462
bo dy 462
du m 462
ve hi 462
week ends</w> 462
z- moi</w> 462
ava is</w> 462
zombi es</w> 462
alg ãºn</w> 462
ribb ons</w> 462
conqu ered</w> 462
boundar ies</w> 462
ika w</w> 462
lincol n</w> 462
aujour d'hui</w> 462
o to</w> 461
yo w</w> 461
ti vity</w> 461
co pped</w> 461
mi ce</w> 461
pa sa 461
for mer</w> 461
wo oh</w> 461
sur gery</w> 461
wel s</w> 461
spi re</w> 461
fli cker</w> 461
sma cked</w> 461
fore head</w> 461
climb in</w> 461
assu red</w> 461
ense mble</w> 461
seren ity</w> 461
s /</w> 460
j .</w> 460
ð ¾</w> 460
se kai</w> 460
li ze</w> 460
ra il</w> 460
da o</w> 460
me ta</w> 460
ga tti</w> 460
qu est 460
su h</w> 460
de main</w> 460
ki lla 460
fri es</w> 460
ye - 460
cli che</w> 460
tar te</w> 460
refu ge</w> 460
mai den</w> 460
plat form</w> 460
professi onal</w> 460
ton es</w> 459
jo ys</w> 459
son g 459
relig ious</w> 459
quick sand</w> 459
a. m.</w> 459
penit enti 459
japan ese</w> 459
ë ² 458
an ony 458
st ev 458
re f</w> 458
ti ckin</w> 458
ho bby</w> 458
ri dad</w> 458
pa para 458
ge macht</w> 458
hi bi 458
tur tle</w> 458
ni in</w> 458
pri mero</w> 458
hoo ds</w> 458
cur ls</w> 458
gri ps</w> 458
sof ter</w> 458
i as</w> 457
a yu 457
ma k</w> 457
ma ana</w> 457
ra gged</w> 457
cu al</w> 457
sin kin</w> 457
ex per 457
ja k</w> 457
ka a</w> 457
shi mmy</w> 457
bar ren</w> 457
ya k</w> 457
ele ments</w> 457
van ished</w> 457
holi days</w> 457
slo wing</w> 457
imagin ary</w> 457
pier do</w> 457
stit ches</w> 457
triste za</w> 457
diab lo</w> 457
sini ster</w> 457
landsca pe</w> 457
a greed</w> 456
go tti</w> 456
la g</w> 456
ta cti 456
hea p</w> 456
mi strea 456
sp ree</w> 456
fi lle</w> 456
thr ust</w> 456
br at</w> 456
dri ps</w> 456
ã ¦</w> 456
lyri c</w> 456
da- da</w> 456
mani fe 456
ker u</w> 456
lor n</w> 456
genu ine</w> 456
bus ca</w> 456
roug e</w> 456
paralle l</w> 456
w under 455
ou - 455
la ho 455
wit cha</w> 455
na h- 455
ac ep 455
cal en 455
he ck</w> 455
sy l 455
zi g</w> 455
ran som</w> 455
mel ted</w> 455
concer t</w> 455
consi dered</w> 455
law yers</w> 455
pol lu 455
emi ly</w> 455
s ary</w> 454
a king</w> 454
j on</w> 454
ma e 454
bo s</w> 454
na m 454
ac ted</w> 454
san na</w> 454
bal lers</w> 454
is nt</w> 454
is lands</w> 454
ä± m 454
mati cs</w> 454
schã¶ n</w> 454
spring time</w> 454
k ã¶n 453
z ino</w> 453
ni x</w> 453
gra d</w> 453
mar vin</w> 453
mer ry- 453
fle xin</w> 453
her e 453
e- e- 453
clean ing</w> 453
introdu ced</w> 453
estre lla</w> 453
pre- chorus</w> 453
impa ct</w> 453
dé n</w> 453
jeho vah</w> 453
lamborghin i</w> 453
o scu 452
in sta 452
ta b</w> 452
bi s 452
sho wers</w> 452
sha ckles</w> 452
qui se</w> 452
sl ur 452
tomor rows</w> 452
sign als</w> 452
ag ora</w> 452
parti cular</w> 452
infer no</w> 452
marvel ous</w> 452
e un 451
e y- 451
no me</w> 451
ma cy</w> 451
ca val 451
ha ste</w> 451
si g</w> 451
pu mped</w> 451
te o</w> 451
chi me</w> 451
ac res</w> 451
he y 451
lon ged</w> 451
cla imin</w> 451
jun g</w> 451
chu mp</w> 451
sue os</w> 451
aim er</w> 451
ì ¤ 451
signi fi 451
untouch able</w> 451
2 00</w> 450
da gger</w> 450
hi o</w> 450
con gratu 450
ve sti 450
cre ed</w> 450
por te</w> 450
super - 450
all ã¡</w> 450
ici as</w> 450
hope ful</w> 450
relation ships</w> 450
buzz in</w> 450
alg una</w> 450
empe zar</w> 450
border line</w> 450
u ste 449
t sun 449
wa cht</w> 449
ca an</w> 449
bi c</w> 449
cu ban</w> 449
ju dy</w> 449
sl ed</w> 449
men tion 449
alle gi 449
drif tin</w> 449
non- stop</w> 449
scoo p</w> 449
worth while</w> 449
r ye</w> 448
se id</w> 448
the irs</w> 448
ge hn</w> 448
sto mpin</w> 448
cro co 448
cho ppin</w> 448
tre men 448
pic s</w> 448
l' o 448
ã¼ ber</w> 448
produ ction</w> 448
remin der</w> 448
belon ged</w> 448
brau ch</w> 448
skele ton</w> 448
v .i.p</w> 447
a j 447
in som 447
ga zing</w> 447
pu ssy 447
mu sh 447
cho ppa</w> 447
thro wed</w> 447
inter ven 447
hypo cri 447
embra ced</w> 447
river side</w> 447
ø ± 446
ti ckle</w> 446
la ma</w> 446
ho je</w> 446
su sp 446
po sing</w> 446
mu a</w> 446
ci to</w> 446
mon t 446
hou r 446
stu tter</w> 446
comple x 446
phi c</w> 446
justi fied</w> 446
nes sun 446
come back</w> 446
edu cated</w> 446
reje ction</w> 446
gamb ler</w> 446
t zen</w> 445
ë ´ 445
wa de</w> 445
ga ge</w> 445
de fe 445
op tions</w> 445
bla med</w> 445
dea ths</w> 445
ad ver 445
ly - 445
respe cted</w> 445
emb ers</w> 445
groo ving</w> 445
igno ring</w> 445
â ¨</w> 445
peri od</w> 445
tax es</w> 445
momen tos</w> 445
legen dary</w> 445
n ga 444
y land</w> 444
sa a</w> 444
le en</w> 444
de je</w> 444
some place</w> 444
he i</w> 444
can tando</w> 444
pr an 444
sil ver 444
dra stic</w> 444
hoo - 444
yor i</w> 444
dog gy</w> 444
weal thy</w> 444
verlo ren</w> 444
uste des</w> 444
e go 443
o t 443
w n 443
p int</w> 443
à ¥ 443
en tr 443
re ls</w> 443
with ered</w> 443
ju e 443
win ter 443
ssi es</w> 443
cla ssy</w> 443
bra ids</w> 443
boo mer 443
inter state</w> 443
t' en</w> 443
s- s- 443
consu ming</w> 443
defen ses</w> 443
ì  443
fav ors</w> 443
ì </w> 443
maxi mum</w> 443
i um</w> 442
ù </w> 442
in su 442
ever - 442
man ners</w> 442
per formed</w> 442
ac cused</w> 442
min dless</w> 442
mar io</w> 442
out fit</w> 442
shoo ters</w> 442
fre ed</w> 442
bru h</w> 442
hand ful</w> 442
agu an 442
cea ble</w> 442
stoo l</w> 442
camoufla ge</w> 442
manha ttan</w> 442
li tes</w> 441
ro d 441
ho ff 441
da mmit</w> 441
fa cin</w> 441
cu ba</w> 441
gra mmy</w> 441
mer ely</w> 441
ã  441
ok laho 441
electri city</w> 441
crimin als</w> 441
argu ment</w> 441
disgui sed</w> 441
vide os</w> 441
e ment</w> 440
j un</w> 440
it ai</w> 440
di ssed</w> 440
wi sh 440
wor rying</w> 440
fra ud</w> 440
questi oning</w> 440
emb ar 440
disapp earing</w> 440
person ne</w> 440
execu tion</w> 440
n ite</w> 439
i da</w> 439
u sin</w> 439
sh ei 439
ca da 439
bu sters</w> 439
me dio</w> 439
wor shi 439
sp oo 439
com pe 439
mu te</w> 439
mu ffin</w> 439
mon keys</w> 439
pe cu 439
bea ches</w> 439
tu es</w> 439
dar n</w> 439
don key</w> 439
thro w 439
din g- 439
pun to</w> 439
loa ds</w> 439
swea ty</w> 439
domin o</w> 439
stock ings</w> 439
meaning less</w> 439
lolli pop</w> 439
allegi ance</w> 439
h ã¤n 438
n ã© 438
la ser</w> 438
ha w</w> 438
po em</w> 438
sti l 438
pi mping</w> 438
pre ssing</w> 438
ten nis</w> 438
ko to 438
differ ently</w> 438
tun ed</w> 438
poli ce 438
ag gra 438
person a</w> 438
bran dy</w> 438
o-o- o-o- 438
neo wa</w> 438
ë© ´</w> 438
z ou</w> 437
ë  437
ar thur</w> 437
re stri 437
ba ttery</w> 437
do ves</w> 437
si mon</w> 437
com mas</w> 437
mu mmy</w> 437
ton ic</w> 437
tel ly</w> 437
din osa 437
ele phants</w> 437
mal a 437
kan a</w> 437
posit i 437
sue o</w> 437
10 00</w> 437
s. o. 437
mini mum</w> 437
extra ordinary</w> 437
inven ted</w> 437
recei ved</w> 437
hot tie</w> 437
see' mon</w> 437
infa tu 437
carou sel</w> 437
jay- z</w> 437
oklaho ma</w> 437
i so 436
ã §</w> 436
st igo</w> 436
no ther</w> 436
en fants</w> 436
fi shes</w> 436
sta bbing</w> 436
po ets</w> 436
pe ine</w> 436
bur sting</w> 436
che wing</w> 436
dra s</w> 436
dra wer</w> 436
mun ition</w> 436
geu re 436
legi ons</w> 436
drau f</w> 436
millen nium</w> 436
s ã­</w> 435
u uh</w> 435
r ita</w> 435
ca mar 435
su spect</w> 435
[...]
